{
  "version": "1.0",
  "truncation": null,
  "padding": null,
  "added_tokens": [
    {
      "id": 0,
      "content": "<unk>",
      "single_word": false,
      "lstrip": false,
      "rstrip": false,
      "normalized": false,
      "special": true
    },
    {
      "id": 1,
      "content": "<bos>",
      "single_word": false,
      "lstrip": false,
      "rstrip": false,
      "normalized": false,
      "special": true
    },
    {
      "id": 2,
      "content": "<eos>",
      "single_word": false,
      "lstrip": false,
      "rstrip": false,
      "normalized": false,
      "special": true
    },
    {
      "id": 3,
      "content": "<pad>",
      "single_word": false,
      "lstrip": false,
      "rstrip": false,
      "normalized": false,
      "special": true
    },
    {
      "id": 4,
      "content": "<TOOL_CALL>",
      "single_word": false,
      "lstrip": false,
      "rstrip": false,
      "normalized": false,
      "special": true
    },
    {
      "id": 5,
      "content": "</TOOL_CALL>",
      "single_word": false,
      "lstrip": false,
      "rstrip": false,
      "normalized": false,
      "special": true
    },
    {
      "id": 6,
      "content": "<TOOL_RESULT>",
      "single_word": false,
      "lstrip": false,
      "rstrip": false,
      "normalized": false,
      "special": true
    },
    {
      "id": 7,
      "content": "</TOOL_RESULT>",
      "single_word": false,
      "lstrip": false,
      "rstrip": false,
      "normalized": false,
      "special": true
    },
    {
      "id": 8,
      "content": "<think>",
      "single_word": false,
      "lstrip": false,
      "rstrip": false,
      "normalized": false,
      "special": true
    },
    {
      "id": 9,
      "content": "</think>",
      "single_word": false,
      "lstrip": false,
      "rstrip": false,
      "normalized": false,
      "special": true
    },
    {
      "id": 10,
      "content": "<erase>",
      "single_word": false,
      "lstrip": false,
      "rstrip": false,
      "normalized": false,
      "special": true
    },
    {
      "id": 11,
      "content": "<call>",
      "single_word": false,
      "lstrip": false,
      "rstrip": false,
      "normalized": false,
      "special": true
    },
    {
      "id": 12,
      "content": "<calc>",
      "single_word": false,
      "lstrip": false,
      "rstrip": false,
      "normalized": false,
      "special": true
    },
    {
      "id": 13,
      "content": "[SYSTEM]",
      "single_word": false,
      "lstrip": false,
      "rstrip": false,
      "normalized": false,
      "special": true
    },
    {
      "id": 14,
      "content": "[/SYSTEM]",
      "single_word": false,
      "lstrip": false,
      "rstrip": false,
      "normalized": false,
      "special": true
    },
    {
      "id": 15,
      "content": "if",
      "single_word": false,
      "lstrip": false,
      "rstrip": false,
      "normalized": false,
      "special": true
    },
    {
      "id": 16,
      "content": "else",
      "single_word": false,
      "lstrip": false,
      "rstrip": false,
      "normalized": false,
      "special": true
    },
    {
      "id": 17,
      "content": "elif",
      "single_word": false,
      "lstrip": false,
      "rstrip": false,
      "normalized": false,
      "special": true
    },
    {
      "id": 18,
      "content": "while",
      "single_word": false,
      "lstrip": false,
      "rstrip": false,
      "normalized": false,
      "special": true
    },
    {
      "id": 19,
      "content": "for",
      "single_word": false,
      "lstrip": false,
      "rstrip": false,
      "normalized": false,
      "special": true
    },
    {
      "id": 20,
      "content": "return",
      "single_word": false,
      "lstrip": false,
      "rstrip": false,
      "normalized": false,
      "special": true
    },
    {
      "id": 21,
      "content": "import",
      "single_word": false,
      "lstrip": false,
      "rstrip": false,
      "normalized": false,
      "special": true
    },
    {
      "id": 22,
      "content": "from",
      "single_word": false,
      "lstrip": false,
      "rstrip": false,
      "normalized": false,
      "special": true
    },
    {
      "id": 23,
      "content": "as",
      "single_word": false,
      "lstrip": false,
      "rstrip": false,
      "normalized": false,
      "special": true
    },
    {
      "id": 24,
      "content": "def",
      "single_word": false,
      "lstrip": false,
      "rstrip": false,
      "normalized": false,
      "special": true
    },
    {
      "id": 25,
      "content": "class",
      "single_word": false,
      "lstrip": false,
      "rstrip": false,
      "normalized": false,
      "special": true
    },
    {
      "id": 26,
      "content": "async",
      "single_word": false,
      "lstrip": false,
      "rstrip": false,
      "normalized": false,
      "special": true
    },
    {
      "id": 27,
      "content": "await",
      "single_word": false,
      "lstrip": false,
      "rstrip": false,
      "normalized": false,
      "special": true
    },
    {
      "id": 28,
      "content": "try",
      "single_word": false,
      "lstrip": false,
      "rstrip": false,
      "normalized": false,
      "special": true
    },
    {
      "id": 29,
      "content": "except",
      "single_word": false,
      "lstrip": false,
      "rstrip": false,
      "normalized": false,
      "special": true
    },
    {
      "id": 30,
      "content": "finally",
      "single_word": false,
      "lstrip": false,
      "rstrip": false,
      "normalized": false,
      "special": true
    },
    {
      "id": 31,
      "content": "case",
      "single_word": false,
      "lstrip": false,
      "rstrip": false,
      "normalized": false,
      "special": true
    },
    {
      "id": 32,
      "content": "switch",
      "single_word": false,
      "lstrip": false,
      "rstrip": false,
      "normalized": false,
      "special": true
    },
    {
      "id": 33,
      "content": "break",
      "single_word": false,
      "lstrip": false,
      "rstrip": false,
      "normalized": false,
      "special": true
    },
    {
      "id": 34,
      "content": "continue",
      "single_word": false,
      "lstrip": false,
      "rstrip": false,
      "normalized": false,
      "special": true
    },
    {
      "id": 35,
      "content": "yield",
      "single_word": false,
      "lstrip": false,
      "rstrip": false,
      "normalized": false,
      "special": true
    },
    {
      "id": 36,
      "content": "interface",
      "single_word": false,
      "lstrip": false,
      "rstrip": false,
      "normalized": false,
      "special": true
    },
    {
      "id": 37,
      "content": "struct",
      "single_word": false,
      "lstrip": false,
      "rstrip": false,
      "normalized": false,
      "special": true
    },
    {
      "id": 38,
      "content": "true",
      "single_word": false,
      "lstrip": false,
      "rstrip": false,
      "normalized": false,
      "special": true
    },
    {
      "id": 39,
      "content": "false",
      "single_word": false,
      "lstrip": false,
      "rstrip": false,
      "normalized": false,
      "special": true
    },
    {
      "id": 40,
      "content": "None",
      "single_word": false,
      "lstrip": false,
      "rstrip": false,
      "normalized": false,
      "special": true
    },
    {
      "id": 41,
      "content": "self",
      "single_word": false,
      "lstrip": false,
      "rstrip": false,
      "normalized": false,
      "special": true
    },
    {
      "id": 42,
      "content": "assert",
      "single_word": false,
      "lstrip": false,
      "rstrip": false,
      "normalized": false,
      "special": true
    },
    {
      "id": 43,
      "content": "lambda",
      "single_word": false,
      "lstrip": false,
      "rstrip": false,
      "normalized": false,
      "special": true
    },
    {
      "id": 44,
      "content": "with",
      "single_word": false,
      "lstrip": false,
      "rstrip": false,
      "normalized": false,
      "special": true
    },
    {
      "id": 45,
      "content": "global",
      "single_word": false,
      "lstrip": false,
      "rstrip": false,
      "normalized": false,
      "special": true
    },
    {
      "id": 46,
      "content": "{",
      "single_word": false,
      "lstrip": false,
      "rstrip": false,
      "normalized": false,
      "special": true
    },
    {
      "id": 47,
      "content": "}",
      "single_word": false,
      "lstrip": false,
      "rstrip": false,
      "normalized": false,
      "special": true
    },
    {
      "id": 48,
      "content": "(",
      "single_word": false,
      "lstrip": false,
      "rstrip": false,
      "normalized": false,
      "special": true
    },
    {
      "id": 49,
      "content": ")",
      "single_word": false,
      "lstrip": false,
      "rstrip": false,
      "normalized": false,
      "special": true
    },
    {
      "id": 50,
      "content": "[",
      "single_word": false,
      "lstrip": false,
      "rstrip": false,
      "normalized": false,
      "special": true
    },
    {
      "id": 51,
      "content": "]",
      "single_word": false,
      "lstrip": false,
      "rstrip": false,
      "normalized": false,
      "special": true
    },
    {
      "id": 52,
      "content": "=",
      "single_word": false,
      "lstrip": false,
      "rstrip": false,
      "normalized": false,
      "special": true
    },
    {
      "id": 53,
      "content": "==",
      "single_word": false,
      "lstrip": false,
      "rstrip": false,
      "normalized": false,
      "special": true
    },
    {
      "id": 54,
      "content": "!=",
      "single_word": false,
      "lstrip": false,
      "rstrip": false,
      "normalized": false,
      "special": true
    },
    {
      "id": 55,
      "content": ">",
      "single_word": false,
      "lstrip": false,
      "rstrip": false,
      "normalized": false,
      "special": true
    },
    {
      "id": 56,
      "content": "<",
      "single_word": false,
      "lstrip": false,
      "rstrip": false,
      "normalized": false,
      "special": true
    },
    {
      "id": 57,
      "content": ">=",
      "single_word": false,
      "lstrip": false,
      "rstrip": false,
      "normalized": false,
      "special": true
    },
    {
      "id": 58,
      "content": "<=",
      "single_word": false,
      "lstrip": false,
      "rstrip": false,
      "normalized": false,
      "special": true
    },
    {
      "id": 59,
      "content": "+",
      "single_word": false,
      "lstrip": false,
      "rstrip": false,
      "normalized": false,
      "special": true
    },
    {
      "id": 60,
      "content": "-",
      "single_word": false,
      "lstrip": false,
      "rstrip": false,
      "normalized": false,
      "special": true
    },
    {
      "id": 61,
      "content": "*",
      "single_word": false,
      "lstrip": false,
      "rstrip": false,
      "normalized": false,
      "special": true
    },
    {
      "id": 62,
      "content": "/",
      "single_word": false,
      "lstrip": false,
      "rstrip": false,
      "normalized": false,
      "special": true
    },
    {
      "id": 63,
      "content": "%",
      "single_word": false,
      "lstrip": false,
      "rstrip": false,
      "normalized": false,
      "special": true
    },
    {
      "id": 64,
      "content": "!",
      "single_word": false,
      "lstrip": false,
      "rstrip": false,
      "normalized": false,
      "special": true
    },
    {
      "id": 65,
      "content": "&",
      "single_word": false,
      "lstrip": false,
      "rstrip": false,
      "normalized": false,
      "special": true
    },
    {
      "id": 66,
      "content": "|",
      "single_word": false,
      "lstrip": false,
      "rstrip": false,
      "normalized": false,
      "special": true
    },
    {
      "id": 67,
      "content": "^",
      "single_word": false,
      "lstrip": false,
      "rstrip": false,
      "normalized": false,
      "special": true
    },
    {
      "id": 68,
      "content": "~",
      "single_word": false,
      "lstrip": false,
      "rstrip": false,
      "normalized": false,
      "special": true
    },
    {
      "id": 69,
      "content": "&&",
      "single_word": false,
      "lstrip": false,
      "rstrip": false,
      "normalized": false,
      "special": true
    },
    {
      "id": 70,
      "content": "||",
      "single_word": false,
      "lstrip": false,
      "rstrip": false,
      "normalized": false,
      "special": true
    },
    {
      "id": 71,
      "content": "->",
      "single_word": false,
      "lstrip": false,
      "rstrip": false,
      "normalized": false,
      "special": true
    },
    {
      "id": 72,
      "content": "ASSERT",
      "single_word": false,
      "lstrip": false,
      "rstrip": false,
      "normalized": false,
      "special": true
    },
    {
      "id": 73,
      "content": "VERIFY",
      "single_word": false,
      "lstrip": false,
      "rstrip": false,
      "normalized": false,
      "special": true
    },
    {
      "id": 74,
      "content": "BECAUSE",
      "single_word": false,
      "lstrip": false,
      "rstrip": false,
      "normalized": false,
      "special": true
    },
    {
      "id": 75,
      "content": "THEN",
      "single_word": false,
      "lstrip": false,
      "rstrip": false,
      "normalized": false,
      "special": true
    },
    {
      "id": 76,
      "content": "STEP",
      "single_word": false,
      "lstrip": false,
      "rstrip": false,
      "normalized": false,
      "special": true
    }
  ],
  "normalizer": null,
  "pre_tokenizer": {
    "type": "ByteLevel",
    "add_prefix_space": true,
    "trim_offsets": true,
    "use_regex": true
  },
  "post_processor": null,
  "decoder": {
    "type": "ByteLevel",
    "add_prefix_space": true,
    "trim_offsets": true,
    "use_regex": true
  },
  "model": {
    "type": "BPE",
    "dropout": null,
    "unk_token": "<unk>",
    "continuing_subword_prefix": null,
    "end_of_word_suffix": null,
    "fuse_unk": false,
    "byte_fallback": false,
    "ignore_merges": false,
    "vocab": {
      "<unk>": 0,
      "<bos>": 1,
      "<eos>": 2,
      "<pad>": 3,
      "<TOOL_CALL>": 4,
      "</TOOL_CALL>": 5,
      "<TOOL_RESULT>": 6,
      "</TOOL_RESULT>": 7,
      "<think>": 8,
      "</think>": 9,
      "<erase>": 10,
      "<call>": 11,
      "<calc>": 12,
      "[SYSTEM]": 13,
      "[/SYSTEM]": 14,
      "if": 15,
      "else": 16,
      "elif": 17,
      "while": 18,
      "for": 19,
      "return": 20,
      "import": 21,
      "from": 22,
      "as": 23,
      "def": 24,
      "class": 25,
      "async": 26,
      "await": 27,
      "try": 28,
      "except": 29,
      "finally": 30,
      "case": 31,
      "switch": 32,
      "break": 33,
      "continue": 34,
      "yield": 35,
      "interface": 36,
      "struct": 37,
      "true": 38,
      "false": 39,
      "None": 40,
      "self": 41,
      "assert": 42,
      "lambda": 43,
      "with": 44,
      "global": 45,
      "{": 46,
      "}": 47,
      "(": 48,
      ")": 49,
      "[": 50,
      "]": 51,
      "=": 52,
      "==": 53,
      "!=": 54,
      ">": 55,
      "<": 56,
      ">=": 57,
      "<=": 58,
      "+": 59,
      "-": 60,
      "*": 61,
      "/": 62,
      "%": 63,
      "!": 64,
      "&": 65,
      "|": 66,
      "^": 67,
      "~": 68,
      "&&": 69,
      "||": 70,
      "->": 71,
      "ASSERT": 72,
      "VERIFY": 73,
      "BECAUSE": 74,
      "THEN": 75,
      "STEP": 76,
      "\"": 77,
      "#": 78,
      "$": 79,
      "'": 80,
      ",": 81,
      ".": 82,
      "0": 83,
      "1": 84,
      "2": 85,
      "3": 86,
      "4": 87,
      "5": 88,
      "6": 89,
      "7": 90,
      "8": 91,
      "9": 92,
      ":": 93,
      ";": 94,
      "?": 95,
      "A": 96,
      "B": 97,
      "C": 98,
      "D": 99,
      "E": 100,
      "F": 101,
      "G": 102,
      "H": 103,
      "I": 104,
      "J": 105,
      "K": 106,
      "L": 107,
      "M": 108,
      "N": 109,
      "O": 110,
      "P": 111,
      "Q": 112,
      "R": 113,
      "S": 114,
      "T": 115,
      "U": 116,
      "V": 117,
      "W": 118,
      "X": 119,
      "Y": 120,
      "Z": 121,
      "\\": 122,
      "_": 123,
      "`": 124,
      "a": 125,
      "b": 126,
      "c": 127,
      "d": 128,
      "e": 129,
      "f": 130,
      "g": 131,
      "h": 132,
      "i": 133,
      "j": 134,
      "k": 135,
      "l": 136,
      "m": 137,
      "n": 138,
      "o": 139,
      "p": 140,
      "q": 141,
      "r": 142,
      "s": 143,
      "t": 144,
      "u": 145,
      "v": 146,
      "w": 147,
      "x": 148,
      "y": 149,
      "z": 150,
      "¡": 151,
      "¢": 152,
      "£": 153,
      "¦": 154,
      "¨": 155,
      "©": 156,
      "«": 157,
      "¬": 158,
      "¯": 159,
      "°": 160,
      "±": 161,
      "³": 162,
      "´": 163,
      "¶": 164,
      "¸": 165,
      "¹": 166,
      "»": 167,
      "½": 168,
      "¾": 169,
      "¿": 170,
      "Â": 171,
      "Ã": 172,
      "Å": 173,
      "Ë": 174,
      "â": 175,
      "ĉ": 176,
      "Ċ": 177,
      "Ġ": 178,
      "Ģ": 179,
      "Ĥ": 180,
      "ĥ": 181,
      "Ħ": 182,
      "Ĩ": 183,
      "ĵ": 184,
      "ĺ": 185,
      "Ļ": 186,
      "ļ": 187,
      "ľ": 188,
      "Ŀ": 189,
      "ł": 190,
      "Ń": 191,
      "he": 192,
      "Ġt": 193,
      "Ġa": 194,
      "Ġs": 195,
      "Ġw": 196,
      "nd": 197,
      "Ġthe": 198,
      "ed": 199,
      "Ġand": 200,
      "Ġto": 201,
      "Ġb": 202,
      "in": 203,
      "Ġh": 204,
      "Ġwa": 205,
      "re": 206,
      "ou": 207,
      "Ġf": 208,
      "it": 209,
      "Ġl": 210,
      "Ġc": 211,
      "Ġd": 212,
      "er": 213,
      "Ġhe": 214,
      "Ġm": 215,
      "Ġp": 216,
      "Ġwas": 217,
      "ĠT": 218,
      "om": 219,
      "Ġo": 220,
      "ay": 221,
      "ar": 222,
      "is": 223,
      "ing": 224,
      "il": 225,
      "Ġg": 226,
      "id": 227,
      "at": 228,
      "en": 229,
      "Ġn": 230,
      "Ġsa": 231,
      "Ġha": 232,
      "ĠThe": 233,
      "ĠS": 234,
      "an": 235,
      "im": 236,
      "or": 237,
      "on": 238,
      "Ġit": 239,
      "Ġth": 240,
      "ll": 241,
      "le": 242,
      "ĠH": 243,
      "ot": 244,
      "Ġher": 245,
      "et": 246,
      "ir": 247,
      "ĠShe": 248,
      "es": 249,
      "ĠHe": 250,
      "Ġin": 251,
      "ver": 252,
      "ut": 253,
      "ow": 254,
      "ĠThey": 255,
      "ck": 256,
      "Ġe": 257,
      "Ġy": 258,
      "Ġu": 259,
      "ld": 260,
      "oo": 261,
      "Ġsaid": 262,
      "ily": 263,
      "ig": 264,
      "Ġr": 265,
      "Ġ\"": 266,
      "Ġbe": 267,
      "am": 268,
      "ĠI": 269,
      "Ġst": 270,
      "ke": 271,
      "ce": 272,
      "ve": 273,
      "Ġshe": 274,
      "pp": 275,
      "ith": 276,
      "ĠL": 277,
      "Ġwith": 278,
      "On": 279,
      "Ġon": 280,
      "Ġyou": 281,
      "Ġof": 282,
      "ked": 283,
      "ri": 284,
      "nt": 285,
      "Ġpl": 286,
      "Ġhis": 287,
      "Ġso": 288,
      "ad": 289,
      "very": 290,
      "Ġday": 291,
      "Ġthat": 292,
      "ĠLily": 293,
      "Ġup": 294,
      "ĠOn": 295,
      "Ġplay": 296,
      "Ġhad": 297,
      "st": 298,
      "Ġthey": 299,
      "Ġwe": 300,
      "ĠB": 301,
      "Ġmom": 302,
      "Ġfor": 303,
      "el": 304,
      "un": 305,
      "ould": 306,
      "'s": 307,
      "my": 308,
      "The": 309,
      "Ġli": 310,
      "ch": 311,
      "Ġhapp": 312,
      "Ġwant": 313,
      "ent": 314,
      "Ġsh": 315,
      "itt": 316,
      "out": 317,
      "her": 318,
      "Ġnot": 319,
      "Ġdo": 320,
      "se": 321,
      "ly": 322,
      "ome": 323,
      "Ġvery": 324,
      "ound": 325,
      "end": 326,
      "all": 327,
      "Ġwh": 328,
      "ĠM": 329,
      "ime": 330,
      "Ġk": 331,
      "ittle": 332,
      "Ġtime": 333,
      "al": 334,
      "Ġlittle": 335,
      "Ġne": 336,
      "ht": 337,
      "Ġthere": 338,
      "Ġis": 339,
      "Ġhappy": 340,
      "Ġre": 341,
      "Ġbig": 342,
      "ĠIt": 343,
      "Ġsm": 344,
      "Ġbut": 345,
      "ĠĊ": 346,
      "Ġan": 347,
      "ra": 348,
      "Ġsaw": 349,
      "ry": 350,
      ".\"": 351,
      "riend": 352,
      "Ġfriend": 353,
      "Ġas": 354,
      "ack": 355,
      "ide": 356,
      "ake": 357,
      "'t": 358,
      "ug": 359,
      "!\"": 360,
      "Ġloo": 361,
      "Ġwere": 362,
      "ter": 363,
      "ved": 364,
      "ore": 365,
      "Ġlo": 366,
      "ĠOnce": 367,
      "ec": 368,
      "Ġtoo": 369,
      "Ġhim": 370,
      "Ġbo": 371,
      "Ġgo": 372,
      "Ġse": 373,
      "Ġare": 374,
      "ĠTim": 375,
      "Ġj": 376,
      "irl": 377,
      "ard": 378,
      "Ġwanted": 379,
      "ill": 380,
      "Ġthem": 381,
      "Ġgirl": 382,
      "Ġupon": 383,
      "ĠA": 384,
      "Ġout": 385,
      "Ġat": 386,
      "Ġtheir": 387,
      "ur": 388,
      "ind": 389,
      "fu": 390,
      "way": 391,
      "Ġdid": 392,
      "Ġsp": 393,
      "Ġsmil": 394,
      "Ġcould": 395,
      "hen": 396,
      "Ġhave": 397,
      "ain": 398,
      "art": 399,
      "hed": 400,
      "ĠBen": 401,
      "ĠJ": 402,
      "Ġex": 403,
      "rom": 404,
      "Ġar": 405,
      "Ġcan": 406,
      "Ġwent": 407,
      "ic": 408,
      "lp": 409,
      "ĠTom": 410,
      "ful": 411,
      "ood": 412,
      "?\"": 413,
      "Ġfriends": 414,
      "hing": 415,
      "ight": 416,
      "Ġnam": 417,
      "Ġkn": 418,
      "Ġall": 419,
      "Ġhelp": 420,
      "Ġsay": 421,
      "um": 422,
      "ĠOne": 423,
      "one": 424,
      "ark": 425,
      "Ġback": 426,
      "You": 427,
      "Ġcl": 428,
      "Ġfun": 429,
      "are": 430,
      "Ġno": 431,
      "Ġle": 432,
      "op": 433,
      "Ġsc": 434,
      "Ġal": 435,
      "Ġsmiled": 436,
      "Ġnamed": 437,
      "oug": 438,
      "Ġman": 439,
      "elt": 440,
      "Ġloved": 441,
      "side": 442,
      "ick": 443,
      "Ġtoy": 444,
      "Ġlike": 445,
      "Ġasked": 446,
      "Ġfelt": 447,
      "Ġfe": 448,
      "Ġlooked": 449,
      "Ġsee": 450,
      "Ġme": 451,
      "Ġsome": 452,
      "Ġaround": 453,
      "ame": 454,
      "omet": 455,
      "ĠW": 456,
      "Ġro": 457,
      "Ġbr": 458,
      "ure": 459,
      "Ġbir": 460,
      "ĠTimmy": 461,
      "ice": 462,
      "get": 463,
      "Ġwould": 464,
      "Ġboy": 465,
      "Ġstart": 466,
      "ong": 467,
      "ss": 468,
      "Ġbird": 469,
      "Ġsomet": 470,
      "Ġfa": 471,
      "Ã¢": 472,
      "âĤ": 473,
      "âĤ¬": 474,
      "dd": 475,
      "ings": 476,
      "Ġag": 477,
      "ade": 478,
      "Ġmake": 479,
      "Ġwor": 480,
      "Ġwhat": 481,
      ",\"": 482,
      "king": 483,
      "ĠYou": 484,
      "ĠBut": 485,
      "Ġsays": 486,
      "Ġran": 487,
      "own": 488,
      "ie": 489,
      "Ġaway": 490,
      "Ġtre": 491,
      "gether": 492,
      "ared": 493,
      "ag": 494,
      "Ġstarted": 495,
      "oud": 496,
      "Ġmade": 497,
      "Ġcar": 498,
      "Ġsomething": 499,
      "Ġtogether": 500,
      "ther": 501,
      "Ġpark": 502,
      "Ġco": 503,
      "ited": 504,
      "Ġsad": 505,
      "Ġother": 506,
      "Ġnew": 507,
      "Ġfrom": 508,
      "Ġput": 509,
      "ell": 510,
      "Ġexc": 511,
      "Ġla": 512,
      "Ġpr": 513,
      "Ġhug": 514,
      "ble": 515,
      "ook": 516,
      "Ġagain": 517,
      "ach": 518,
      "Ġmu": 519,
      "Ġgood": 520,
      "Ġwhen": 521,
      "Ġhome": 522,
      "ep": 523,
      "Ġwho": 524,
      "ried": 525,
      "Ġfl": 526,
      "est": 527,
      "Lily": 528,
      "hat": 529,
      "Ġthen": 530,
      "Ġfound": 531,
      "Ġch": 532,
      "pped": 533,
      "Ġdec": 534,
      "Ġwal": 535,
      "Ġget": 536,
      "qu": 537,
      "Ġplaying": 538,
      "One": 539,
      "nn": 540,
      "ought": 541,
      "Ġsw": 542,
      "ĠE": 543,
      "pl": 544,
      "ally": 545,
      "ous": 546,
      "Ġthings": 547,
      "Ġliked": 548,
      "uck": 549,
      "Ġexcited": 550,
      "Ġgot": 551,
      "ro": 552,
      "Ġbl": 553,
      "ided": 554,
      "ĠMom": 555,
      "ara": 556,
      "ĠD": 557,
      "ave": 558,
      "Ġdecided": 559,
      "Ġevery": 560,
      "Ġyour": 561,
      "Ġcame": 562,
      "Ġdog": 563,
      "ax": 564,
      "Ġscared": 565,
      "Ġv": 566,
      "ust": 567,
      "Ġdown": 568,
      "Ġone": 569,
      "ouse": 570,
      "Ġfind": 571,
      "Ġcare": 572,
      "nna": 573,
      "ist": 574,
      "ny": 575,
      "ap": 576,
      "Ġthan": 577,
      "Ġbec": 578,
      "They": 579,
      "Ġfeel": 580,
      "ue": 581,
      "Ġdad": 582,
      "Ġmy": 583,
      "udd": 584,
      "Ġab": 585,
      "Ġwill": 586,
      "Ġlook": 587,
      "arn": 588,
      "our": 589,
      "Ġke": 590,
      "Ġgra": 591,
      "ĠSam": 592,
      "us": 593,
      "Ġgr": 594,
      "nder": 595,
      "ess": 596,
      "ways": 597,
      "Ġpo": 598,
      "fe": 599,
      "Ġdidn": 600,
      "Ġtook": 601,
      "Ġabout": 602,
      "Ġalways": 603,
      "ers": 604,
      "Ġtoys": 605,
      "ant": 606,
      "bb": 607,
      "Ġlot": 608,
      "Ġkne": 609,
      "ise": 610,
      "Ġball": 611,
      "Ġmommy": 612,
      "Ġtree": 613,
      "ĠF": 614,
      "Ġthought": 615,
      "Ġoutside": 616,
      "ite": 617,
      "Ġmore": 618,
      "ened": 619,
      "Ġta": 620,
      "ched": 621,
      "Ġlearn": 622,
      "eci": 623,
      "Ġho": 624,
      "ret": 625,
      "Ġold": 626,
      "Ġint": 627,
      "ged": 628,
      "Ġknow": 629,
      "Ġsor": 630,
      "Ġcat": 631,
      "Ġlaug": 632,
      "Ġtake": 633,
      "ive": 634,
      "ecial": 635,
      "Ġspecial": 636,
      "ĠMax": 637,
      "ia": 638,
      "Ġknew": 639,
      "udden": 640,
      "Ġany": 641,
      "Ġpe": 642,
      "fter": 643,
      "Ġhow": 644,
      "uddenly": 645,
      "ĠSara": 646,
      "Ġsorry": 647,
      "ink": 648,
      "ma": 649,
      "Ġshow": 650,
      "ĠAnna": 651,
      "But": 652,
      "Ġtr": 653,
      "Ġrun": 654,
      "ish": 655,
      "Ġtw": 656,
      "Ġsl": 657,
      "Ġmuch": 658,
      "and": 659,
      "au": 660,
      "Ġhand": 661,
      "Ġhouse": 662,
      "Ġor": 663,
      "Ġop": 664,
      "ven": 665,
      "Ġsk": 666,
      "Ġmo": 667,
      "Ġclo": 668,
      "Ġsun": 669,
      "Ġtried": 670,
      "Ġinto": 671,
      "Ġwater": 672,
      "Ġinside": 673,
      "ump": 674,
      "Ġtold": 675,
      "ank": 676,
      "ate": 677,
      "Ġthis": 678,
      "Ġen": 679,
      "Ġgave": 680,
      "Ġproud": 681,
      "Ġqu": 682,
      "Ġheard": 683,
      "Ġif": 684,
      "Ġnever": 685,
      "Ġeach": 686,
      "Ġover": 687,
      "Ġcouldn": 688,
      "ace": 689,
      "ĠWe": 690,
      "ty": 691,
      "Ġroom": 692,
      "by": 693,
      "dy": 694,
      "ĠEvery": 695,
      "Ġeat": 696,
      "other": 697,
      "Ġpret": 698,
      "ion": 699,
      "Ġpick": 700,
      "Ġexpl": 701,
      "ause": 702,
      "Ġplayed": 703,
      "ak": 704,
      "ge": 705,
      "etter": 706,
      "Ġgre": 707,
      "Ġhugged": 708,
      "Ġjust": 709,
      "here": 710,
      "Mom": 711,
      "Ġcom": 712,
      "Ġbox": 713,
      "Ġoff": 714,
      "Ġwat": 715,
      "oth": 716,
      "Ġnice": 717,
      "Ġneed": 718,
      "Ġmany": 719,
      "'m": 720,
      "Ġstr": 721,
      "Ġbecause": 722,
      "ile": 723,
      "Ġsmall": 724,
      "gry": 725,
      "Ġfo": 726,
      "iz": 727,
      "Ġbu": 728,
      "Ġjo": 729,
      "ving": 730,
      "Ġlong": 731,
      "uc": 732,
      "imal": 733,
      "Ġanimal": 734,
      "Ġbear": 735,
      "ine": 736,
      "Ġsn": 737,
      "ĠJo": 738,
      "Ġtry": 739,
      "ort": 740,
      "ough": 741,
      "Ġunt": 742,
      "ĠJack": 743,
      "urt": 744,
      "ild": 745,
      "sel": 746,
      "Ġlearned": 747,
      "sed": 748,
      "Ġuntil": 749,
      "ĠMia": 750,
      "Ġlove": 751,
      "Ġkind": 752,
      "Ġbetter": 753,
      "ft": 754,
      "Ġflow": 755,
      "Ġim": 756,
      "Ġcall": 757,
      "Ġdon": 758,
      "He": 759,
      "Ġbest": 760,
      "ars": 761,
      "urn": 762,
      "ull": 763,
      "em": 764,
      "Ġend": 765,
      "ady": 766,
      "urp": 767,
      "Tom": 768,
      "Ġcle": 769,
      "Ġad": 770,
      "Yes": 771,
      "vent": 772,
      "aut": 773,
      "ĠAnd": 774,
      "ves": 775,
      "ĠC": 776,
      "ream": 777,
      "Ġcareful": 778,
      "Ġfast": 779,
      "arden": 780,
      "Ġgarden": 781,
      "Ġbeaut": 782,
      "ber": 783,
      "Ġfi": 784,
      "Th": 785,
      "Ġche": 786,
      "Ġthanked": 787,
      "Ġbra": 788,
      "pt": 789,
      "Ġsky": 790,
      "Åĵ": 791,
      "Ġeven": 792,
      "ies": 793,
      "Ġjump": 794,
      "ĠSo": 795,
      "lly": 796,
      "Ġlaughed": 797,
      "ase": 798,
      "Ġloud": 799,
      "Ġby": 800,
      "Ġte": 801,
      "ĠHer": 802,
      "Ġgl": 803,
      "Ġlist": 804,
      "iny": 805,
      "It": 806,
      "wn": 807,
      "lew": 808,
      "Ġcome": 809,
      "Ġbeauti": 810,
      "Ġhard": 811,
      "Ġbeautiful": 812,
      "Ġway": 813,
      "Ġhurt": 814,
      "Ġanimals": 815,
      "Ġlots": 816,
      "Ġwo": 817,
      "Ġstill": 818,
      "Ġfam": 819,
      "Ġra": 820,
      "Ġunder": 821,
      "ĠThen": 822,
      "Ġstay": 823,
      "Ġlet": 824,
      "ct": 825,
      "ĠÃ¢": 826,
      "ect": 827,
      "ning": 828,
      "be": 829,
      "hes": 830,
      "Ġcu": 831,
      "Ġboth": 832,
      "Ġsafe": 833,
      "ĠFrom": 834,
      "ool": 835,
      "Ġbad": 836,
      "ĠHis": 837,
      "Ġcol": 838,
      "ople": 839,
      "ock": 840,
      "Ġrem": 841,
      "Ġtwo": 842,
      "ree": 843,
      "kay": 844,
      "Ġbook": 845,
      "Ġimp": 846,
      "Ġlived": 847,
      "ast": 848,
      "Ġits": 849,
      "Ġangry": 850,
      "ane": 851,
      "Ġshould": 852,
      "No": 853,
      "ucy": 854,
      "ress": 855,
      "Ġbrave": 856,
      "urpr": 857,
      "ished": 858,
      "Ġwalked": 859,
      "Ġpeople": 860,
      "Ġred": 861,
      "Ġflew": 862,
      "igh": 863,
      "ob": 864,
      "Ġsurpr": 865,
      "Ġfamily": 866,
      "When": 867,
      "Ġcalled": 868,
      "ip": 869,
      "Ġsoon": 870,
      "Ġstor": 871,
      "Ġfin": 872,
      "Let": 873,
      "Ġshare": 874,
      "fore": 875,
      "Ġkept": 876,
      "Ġdan": 877,
      "led": 878,
      "Ġfly": 879,
      "xt": 880,
      "Ġfore": 881,
      "dded": 882,
      "Ġpic": 883,
      "ĠP": 884,
      "ised": 885,
      "hn": 886,
      "Ġdoor": 887,
      "Ġclean": 888,
      "Ġgoing": 889,
      "Ġrock": 890,
      "Ġpretty": 891,
      "ĠWhen": 892,
      "âĤ¬â": 893,
      "Ġnow": 894,
      "Ġkeep": 895,
      "Ġnoise": 896,
      "Ġdra": 897,
      "Ġshiny": 898,
      "Ġdoll": 899,
      "Ġopened": 900,
      "ummy": 901,
      "Ġwind": 902,
      "ary": 903,
      "Ġcry": 904,
      "Ġadvent": 905,
      "age": 906,
      "Ġbefore": 907,
      "Tim": 908,
      "Ġreal": 909,
      "Ġide": 910,
      "Ġsto": 911,
      "Ġcon": 912,
      "so": 913,
      "Ġturn": 914,
      "illy": 915,
      "Ġexplore": 916,
      "Ġground": 917,
      "les": 918,
      "ied": 919,
      "Ġalso": 920,
      "What": 921,
      "Ġfr": 922,
      "Ġey": 923,
      "Ġfar": 924,
      "Ġidea": 925,
      "Ġcolor": 926,
      "Ġnodded": 927,
      "That": 928,
      "oon": 929,
      "Ħ¢": 930,
      "âĤ¬âĦ¢": 931,
      "Ġhas": 932,
      "Ġwar": 933,
      "oy": 934,
      "th": 935,
      "imb": 936,
      "Ġun": 937,
      "Ġfeeling": 938,
      "Ġnext": 939,
      "Ġpicked": 940,
      "ture": 941,
      "uch": 942,
      "kes": 943,
      "ĠLucy": 944,
      "thing": 945,
      "Ġclimb": 946,
      "Ġma": 947,
      "ĠDad": 948,
      "Ġwalking": 949,
      "Ġsmile": 950,
      "aybe": 951,
      "Ġwhile": 952,
      "Ġthr": 953,
      "Ġbed": 954,
      "eet": 955,
      "ger": 956,
      "ĠG": 957,
      "Ġadventure": 958,
      "Thank": 959,
      "Ġbeing": 960,
      "Ġgive": 961,
      "Ġtruck": 962,
      "iced": 963,
      "Ġclos": 964,
      "Ġpicture": 965,
      "Ġthink": 966,
      "ious": 967,
      "Ġdif": 968,
      "ted": 969,
      "Ġfood": 970,
      "Ġwr": 971,
      "joy": 972,
      "Ġtow": 973,
      "Ġlisten": 974,
      "Ben": 975,
      "ff": 976,
      "ac": 977,
      "Ġeyes": 978,
      "ught": 979,
      "Ġbre": 980,
      "Ġdel": 981,
      "Ġstopped": 982,
      "Ġbro": 983,
      "Ġtra": 984,
      "Ġlooking": 985,
      "Ġafter": 986,
      "ĠSp": 987,
      "ting": 988,
      "Ġwait": 989,
      "Ġown": 990,
      "Ġvo": 991,
      "Ġshout": 992,
      "Ġwalk": 993,
      "Ġrepl": 994,
      "ember": 995,
      "Ġhead": 996,
      "Ġflowers": 997,
      "Ġgreat": 998,
      "Ġblue": 999,
      "Ġwonder": 1000,
      "Ġhands": 1001,
      "ĠSuddenly": 1002,
      "Ġenjoy": 1003,
      "Ġever": 1004,
      "She": 1005,
      "Suddenly": 1006,
      "irst": 1007,
      "ized": 1008,
      "Ġnear": 1009,
      "Ġimport": 1010,
      "Ġnoticed": 1011,
      "Ġdis": 1012,
      "bbit": 1013,
      "Ġslide": 1014,
      "Ġfish": 1015,
      "Ġquick": 1016,
      "Ġapp": 1017,
      "Ġforest": 1018,
      "able": 1019,
      "Ġus": 1020,
      "llow": 1021,
      "Ġremember": 1022,
      "Ġde": 1023,
      "Ġmean": 1024,
      "Ġsound": 1025,
      "lease": 1026,
      "maz": 1027,
      "Ġwatch": 1028,
      "Ġrain": 1029,
      "Ġamaz": 1030,
      "Ġimportant": 1031,
      "Ġask": 1032,
      "Ġokay": 1033,
      "Ġwork": 1034,
      "bbed": 1035,
      "Ġshowed": 1036,
      "Ġtal": 1037,
      "bye": 1038,
      "gan": 1039,
      "fere": 1040,
      "We": 1041,
      "Ġreplied": 1042,
      "Ġstick": 1043,
      "Ġrabbit": 1044,
      "Ġdiffere": 1045,
      "Ġac": 1046,
      "Ġbright": 1047,
      "Ġright": 1048,
      "day": 1049,
      "Ġfollow": 1050,
      "Ġeveryone": 1051,
      "Ġboat": 1052,
      "Ġstrong": 1053,
      "ĠBob": 1054,
      "Ġuse": 1055,
      "ĠMommy": 1056,
      "Ġsqu": 1057,
      "Ġwatched": 1058,
      "Ġour": 1059,
      "Ġwhere": 1060,
      "ĠSpot": 1061,
      "Ġye": 1062,
      "ath": 1063,
      "ered": 1064,
      "Ġquickly": 1065,
      "Ġmor": 1066,
      "Ġyell": 1067,
      "Ġbeen": 1068,
      "Ġvoice": 1069,
      "So": 1070,
      "Ġdoes": 1071,
      "ĠN": 1072,
      "Ġchild": 1073,
      "ng": 1074,
      "Ġdifferent": 1075,
      "Ġcuri": 1076,
      "Ġface": 1077,
      "Ġhop": 1078,
      "Look": 1079,
      "ange": 1080,
      "ĠSue": 1081,
      "Ġsure": 1082,
      "ĠR": 1083,
      "Ġam": 1084,
      "Ġbecame": 1085,
      "aught": 1086,
      "Ġdress": 1087,
      "Ġgoodbye": 1088,
      "Ġplace": 1089,
      "Ġcloser": 1090,
      "Ġstore": 1091,
      "ila": 1092,
      "Ġmag": 1093,
      "Ġhigh": 1094,
      "Ġwarm": 1095,
      "Ġforg": 1096,
      "Ġcurious": 1097,
      "Ġtell": 1098,
      "ndma": 1099,
      "Ġcook": 1100,
      "unny": 1101,
      "Ġcake": 1102,
      "Ġblock": 1103,
      "Ġbel": 1104,
      "more": 1105,
      "co": 1106,
      "leep": 1107,
      "Ġanymore": 1108,
      "ass": 1109,
      "Ġopen": 1110,
      "Ġnight": 1111,
      "ount": 1112,
      "Ġfav": 1113,
      "Ġhere": 1114,
      "Ġpull": 1115,
      "itc": 1116,
      "ĠTh": 1117,
      "Ġfirst": 1118,
      "Ġthree": 1119,
      "Ġz": 1120,
      "ached": 1121,
      "ired": 1122,
      "Ġpain": 1123,
      "iss": 1124,
      "Ġpu": 1125,
      "Ġbus": 1126,
      "imes": 1127,
      "Her": 1128,
      "Ġgrabbed": 1129,
      "Ġlea": 1130,
      "orn": 1131,
      "Ġru": 1132,
      "Can": 1133,
      "Ġsweet": 1134,
      "Ġfell": 1135,
      "Ġkid": 1136,
      "Ġonly": 1137,
      "Ġbutter": 1138,
      "Ġbirds": 1139,
      "isy": 1140,
      "Ġmon": 1141,
      "Ġsees": 1142,
      "itchen": 1143,
      "Ġkitchen": 1144,
      "Ġjumped": 1145,
      "Ġfire": 1146,
      "Ġcont": 1147,
      "Ġbit": 1148,
      "Ġsand": 1149,
      "Ġba": 1150,
      "Ġflo": 1151,
      "ĠJohn": 1152,
      "Ġstop": 1153,
      "Ġhelped": 1154,
      "Ġglad": 1155,
      "Ġhappened": 1156,
      "Ġgrass": 1157,
      "Ġper": 1158,
      "Ġsing": 1159,
      "Ġshouted": 1160,
      "Ġcra": 1161,
      "ĠSarah": 1162,
      "Ġdr": 1163,
      "Ġtri": 1164,
      "ĠDo": 1165,
      "nts": 1166,
      "Ġcr": 1167,
      "ĠLet": 1168,
      "Ġbeh": 1169,
      "Ġbrother": 1170,
      "Ġreached": 1171,
      "Ġstory": 1172,
      "ppy": 1173,
      "After": 1174,
      "ĠJane": 1175,
      "air": 1176,
      "Ġrealized": 1177,
      "ins": 1178,
      "Ġbunny": 1179,
      "Ġlady": 1180,
      "ĠAs": 1181,
      "Ġyummy": 1182,
      "Ġmess": 1183,
      "Ġhaving": 1184,
      "Ġsoft": 1185,
      "Ġunderst": 1186,
      "Ġgame": 1187,
      "Ġless": 1188,
      "akes": 1189,
      "Ġate": 1190,
      "Ġcre": 1191,
      "'re": 1192,
      "ĠEveryone": 1193,
      "Ġpretend": 1194,
      "Ġdraw": 1195,
      "Ġprin": 1196,
      "Ġhat": 1197,
      "Ġmum": 1198,
      "Ġpare": 1199,
      "Ġrest": 1200,
      "Ġfavor": 1201,
      "Ġthrough": 1202,
      "Ġready": 1203,
      "Ġpap": 1204,
      "zy": 1205,
      "Ġfavorite": 1206,
      "Ġthing": 1207,
      "where": 1208,
      "ken": 1209,
      "Ġlooks": 1210,
      "ĠThat": 1211,
      "Ġreally": 1212,
      "ĠCan": 1213,
      "Ġmagic": 1214,
      "Ġduck": 1215,
      "ĠJoe": 1216,
      "Ġmaking": 1217,
      "Ġcut": 1218,
      "ater": 1219,
      "Ġworld": 1220,
      "Ġhimself": 1221,
      "ather": 1222,
      "Ġbegan": 1223,
      "Ġdone": 1224,
      "fully": 1225,
      "Ġcoming": 1226,
      "Ġkids": 1227,
      "Ġcars": 1228,
      "Ġpond": 1229,
      "Ġprom": 1230,
      "Ġwaved": 1231,
      "Ġtired": 1232,
      "Ġtouch": 1233,
      "Ġwhy": 1234,
      "Ġfro": 1235,
      "bo": 1236,
      "ster": 1237,
      "Ġbutterf": 1238,
      "Wow": 1239,
      "Ġfix": 1240,
      "Ġste": 1241,
      "Ġflower": 1242,
      "Ġpart": 1243,
      "Ġworry": 1244,
      "Ġfill": 1245,
      "Ġname": 1246,
      "Ġfunny": 1247,
      "Jo": 1248,
      "Ġcatch": 1249,
      "Ġcried": 1250,
      "Ġmouse": 1251,
      "sh": 1252,
      "Anna": 1253,
      "Ġused": 1254,
      "Ġdelic": 1255,
      "Ġpus": 1256,
      "Ġseen": 1257,
      "Ġblocks": 1258,
      "Ġhair": 1259,
      "Ġparents": 1260,
      "ign": 1261,
      "ient": 1262,
      "Ġanother": 1263,
      "rel": 1264,
      "uff": 1265,
      "Ġhold": 1266,
      "oney": 1267,
      "eddy": 1268,
      "Ġcool": 1269,
      "aisy": 1270,
      "Ġgreen": 1271,
      "olly": 1272,
      "Mommy": 1273,
      "Sara": 1274,
      "Ġtop": 1275,
      "Ġtast": 1276,
      "Ġlight": 1277,
      "Ġhopped": 1278,
      "iver": 1279,
      "mer": 1280,
      "hy": 1281,
      "Ġdoing": 1282,
      "Ġlesson": 1283,
      "Ġthank": 1284,
      "Ġsurprise": 1285,
      "Ġlikes": 1286,
      "ĠLila": 1287,
      "ation": 1288,
      "\".": 1289,
      "ards": 1290,
      "Ġswim": 1291,
      "Ġgi": 1292,
      "Ġpaper": 1293,
      "Ġfloor": 1294,
      "Ġwished": 1295,
      "As": 1296,
      "Ġdri": 1297,
      "Ġwindow": 1298,
      "Don": 1299,
      "Ġsmell": 1300,
      "Ġbag": 1301,
      "Ġbehind": 1302,
      "Ġdark": 1303,
      "Ġwood": 1304,
      "Ġfull": 1305,
      "Ġtrees": 1306,
      "Ġdro": 1307,
      "Ġrunning": 1308,
      "Ġread": 1309,
      "ike": 1310,
      "Ġworked": 1311,
      "Ġspot": 1312,
      "Ġ-": 1313,
      "Ġdin": 1314,
      "Ġbow": 1315,
      "andy": 1316,
      "Ġyellow": 1317,
      "ren": 1318,
      "ul": 1319,
      "Ġsho": 1320,
      "Ġyears": 1321,
      "ued": 1322,
      "Ġsleep": 1323,
      "Ġsat": 1324,
      "Ġhole": 1325,
      "aring": 1326,
      "ĠIn": 1327,
      "Ġlaugh": 1328,
      "Timmy": 1329,
      "Ġhappily": 1330,
      "ely": 1331,
      "Ġfrog": 1332,
      "Ġsurprised": 1333,
      "Ġset": 1334,
      "Ġswing": 1335,
      "rew": 1336,
      "Ġslow": 1337,
      "Ġremembered": 1338,
      "Ġcarefully": 1339,
      "Ġheld": 1340,
      "Ġlost": 1341,
      "Ġcold": 1342,
      "Hell": 1343,
      "Hello": 1344,
      "Ġbutterfly": 1345,
      "Ġbuy": 1346,
      "Ġice": 1347,
      "uit": 1348,
      "ons": 1349,
      "Ġneeded": 1350,
      "Ġmove": 1351,
      "Ġleft": 1352,
      "Ġhear": 1353,
      "Ġanything": 1354,
      "Ġperf": 1355,
      "Ġenjoyed": 1356,
      "Ġwrong": 1357,
      "Ġfollowed": 1358,
      "Ġfair": 1359,
      "reed": 1360,
      "Ġtall": 1361,
      "Ġdream": 1362,
      "Ġhun": 1363,
      "Ġel": 1364,
      "Ġarri": 1365,
      "Ġchildren": 1366,
      "cess": 1367,
      "Ġtable": 1368,
      "inally": 1369,
      "Ġair": 1370,
      "Ġbooks": 1371,
      "ens": 1372,
      "Ġfriendly": 1373,
      "Ġdir": 1374,
      "Ġunderstand": 1375,
      "Ġhill": 1376,
      "Ġfinished": 1377,
      "ross": 1378,
      "ĠThere": 1379,
      "Ġplease": 1380,
      "Ġsnow": 1381,
      "Ġhot": 1382,
      "ĠTommy": 1383,
      "Ġherself": 1384,
      "Ġdelicious": 1385,
      "Ġclose": 1386,
      "ined": 1387,
      "Ġhid": 1388,
      "Ġcontin": 1389,
      "ds": 1390,
      "Ġmight": 1391,
      "ĠAfter": 1392,
      "Ġarm": 1393,
      "sp": 1394,
      "Ġelse": 1395,
      "Ġbug": 1396,
      "Ġforgot": 1397,
      "Ġarrived": 1398,
      "Ġcast": 1399,
      "Ġcolors": 1400,
      "lf": 1401,
      "ield": 1402,
      "Ġbroken": 1403,
      "Ġgent": 1404,
      "Ġrel": 1405,
      "Ġbaby": 1406,
      "ĠDaisy": 1407,
      "Ġtight": 1408,
      "Ġwonderful": 1409,
      "Ġbuild": 1410,
      "Ġmat": 1411,
      "Ġable": 1412,
      "Ġsong": 1413,
      "Then": 1414,
      "ĠSally": 1415,
      "Ġgone": 1416,
      "av": 1417,
      "asure": 1418,
      "Ġwants": 1419,
      "ĠNow": 1420,
      "Ġfilled": 1421,
      "Ġsquir": 1422,
      "ĠBenny": 1423,
      "ner": 1424,
      "Ġwall": 1425,
      "Ġcreat": 1426,
      "Ġpat": 1427,
      "OK": 1428,
      "room": 1429,
      "Ġsomeone": 1430,
      "Ġagreed": 1431,
      "Sam": 1432,
      "Ġyes": 1433,
      "ich": 1434,
      "Ġleaves": 1435,
      "Ġcount": 1436,
      "Ġpink": 1437,
      "Ġsquirrel": 1438,
      "Ġcontinued": 1439,
      "ask": 1440,
      "ĠEm": 1441,
      "ama": 1442,
      "ee": 1443,
      "'ll": 1444,
      "Ġvis": 1445,
      "Ġlion": 1446,
      "Ġenough": 1447,
      "Ġbreak": 1448,
      "From": 1449,
      "Ġstayed": 1450,
      "Ġgetting": 1451,
      "Ġpoin": 1452,
      "ey": 1453,
      "Ġmorning": 1454,
      "Ġmoment": 1455,
      "ĠMaybe": 1456,
      "Ġfinally": 1457,
      "app": 1458,
      "ash": 1459,
      "Ġfall": 1460,
      "Ġgrandma": 1461,
      "Ġcookies": 1462,
      "ries": 1463,
      "Ġju": 1464,
      "Ġhungry": 1465,
      "ĠK": 1466,
      "Ġscary": 1467,
      "ance": 1468,
      "gon": 1469,
      "Ġturned": 1470,
      "Ġfight": 1471,
      "Ġsometimes": 1472,
      "Ġpi": 1473,
      "row": 1474,
      "Ġmakes": 1475,
      "Ġbeach": 1476,
      "Ġwet": 1477,
      "ĠThis": 1478,
      "Ġtrying": 1479,
      "ced": 1480,
      "icy": 1481,
      "Ġamazing": 1482,
      "Ġsmiles": 1483,
      "Ġfew": 1484,
      "ĠWhat": 1485,
      "red": 1486,
      "ĠBilly": 1487,
      "Ġothers": 1488,
      "Ġclimbed": 1489,
      "Ġmother": 1490,
      "Ġdinner": 1491,
      "oom": 1492,
      "Jack": 1493,
      "apped": 1494,
      "Ġcomp": 1495,
      "John": 1496,
      "Ġlistened": 1497,
      "Ġtalk": 1498,
      "key": 1499,
      "Ġpictures": 1500,
      "This": 1501,
      "Ġcastle": 1502,
      "Ġcream": 1503,
      "Ġmet": 1504,
      "At": 1505,
      "Ġperfect": 1506,
      "rot": 1507,
      "Ġmus": 1508,
      "Ġclot": 1509,
      "Ġwhite": 1510,
      "Ġfur": 1511,
      "Ġdaddy": 1512,
      "oring": 1513,
      "His": 1514,
      "Ġclothes": 1515,
      "ĠGra": 1516,
      "lc": 1517,
      "Ġtail": 1518,
      "amp": 1519,
      "oup": 1520,
      "Ġballoon": 1521,
      "Ġpuppy": 1522,
      "Ġmar": 1523,
      "ctor": 1524,
      "Ġpet": 1525,
      "ĠTo": 1526,
      "Ġjoy": 1527,
      "Ġalone": 1528,
      "Ġpol": 1529,
      "Ġasks": 1530,
      "ence": 1531,
      "Oh": 1532,
      "man": 1533,
      "ĠJen": 1534,
      "Ġsail": 1535,
      "Ġwasn": 1536,
      "Ġbrought": 1537,
      "Ġspl": 1538,
      "Ġspark": 1539,
      "Ġwoods": 1540,
      "Ġeverything": 1541,
      "ĠJim": 1542,
      "ated": 1543,
      "Ġdeep": 1544,
      "Ġstrange": 1545,
      "der": 1546,
      "ister": 1547,
      "Ġpulled": 1548,
      "Ġsit": 1549,
      "Ġride": 1550,
      "Ġdanger": 1551,
      "Ġsear": 1552,
      "uffy": 1553,
      "Ġplan": 1554,
      "Ġgrow": 1555,
      "Ġroll": 1556,
      "ling": 1557,
      "ott": 1558,
      "Ġwon": 1559,
      "eter": 1560,
      "Ġwaited": 1561,
      "Ġhide": 1562,
      "Ġvisit": 1563,
      "ucky": 1564,
      "Ġpie": 1565,
      "Ġfox": 1566,
      "ĠAmy": 1567,
      "Ġamazed": 1568,
      "ower": 1569,
      "med": 1570,
      "Ġleave": 1571,
      "me": 1572,
      "Ġtreat": 1573,
      "zz": 1574,
      "os": 1575,
      "ang": 1576,
      "Ġmusic": 1577,
      "Ġteddy": 1578,
      "ever": 1579,
      "Ġtowards": 1580,
      "Ġruns": 1581,
      "Ġsilly": 1582,
      "ape": 1583,
      "Ġthinks": 1584,
      "Ġland": 1585,
      "Ġliving": 1586,
      "Ġcloud": 1587,
      "Ġflying": 1588,
      "Maybe": 1589,
      "Ġpen": 1590,
      "Ġpre": 1591,
      "Ġfield": 1592,
      "Ġshared": 1593,
      "ames": 1594,
      "igg": 1595,
      "ained": 1596,
      "ises": 1597,
      "Ġpromised": 1598,
      "Okay": 1599,
      "ugg": 1600,
      "ope": 1601,
      "Ġqui": 1602,
      "Ġowner": 1603,
      "gs": 1604,
      "ol": 1605,
      "Ġgu": 1606,
      "Ġjob": 1607,
      "Ġpaint": 1608,
      "Ġrace": 1609,
      "thy": 1610,
      "Ġbelie": 1611,
      "cket": 1612,
      "Ġpa": 1613,
      "Ġside": 1614,
      "Ġmoney": 1615,
      "Ġmoral": 1616,
      "Ġlake": 1617,
      "Ġparty": 1618,
      "Ġsec": 1619,
      "ually": 1620,
      "orm": 1621,
      "Ġquiet": 1622,
      "cle": 1623,
      "Ġsister": 1624,
      "Ġwear": 1625,
      "avy": 1626,
      "eces": 1627,
      "Ġmust": 1628,
      "Ġpieces": 1629,
      "Ġworried": 1630,
      "Max": 1631,
      "Ġfaster": 1632,
      "Ġbran": 1633,
      "Ġcup": 1634,
      "Ġslowly": 1635,
      "sw": 1636,
      "up": 1637,
      "unch": 1638,
      "ĠMolly": 1639,
      "Ġcolorful": 1640,
      "ix": 1641,
      "Ġansw": 1642,
      "ased": 1643,
      "Ġow": 1644,
      "Ġbroke": 1645,
      "Ġgif": 1646,
      "Ġgrate": 1647,
      "Ġwelc": 1648,
      "Ġbike": 1649,
      "Ġdance": 1650,
      "Ġbott": 1651,
      "Ġcandy": 1652,
      "ze": 1653,
      "Ġbigger": 1654,
      "Ġreach": 1655,
      "Ġblank": 1656,
      "Ġgrateful": 1657,
      "ph": 1658,
      "Ġele": 1659,
      "Ġsuch": 1660,
      "Ġplant": 1661,
      "fort": 1662,
      "ĠAll": 1663,
      "Ġsmart": 1664,
      "Ġpro": 1665,
      "less": 1666,
      "Ġpot": 1667,
      "Ġcho": 1668,
      "Ġtrain": 1669,
      "Ġtreasure": 1670,
      "Ġblanket": 1671,
      "Ġsnack": 1672,
      "ire": 1673,
      "Ġscream": 1674,
      "Ġdangerous": 1675,
      "Ġmagical": 1676,
      "Ġmonster": 1677,
      "Ġblack": 1678,
      "Ġwin": 1679,
      "Ġbar": 1680,
      "Ġriver": 1681,
      "outh": 1682,
      "ĠJill": 1683,
      "Ġdragon": 1684,
      "Ġve": 1685,
      "Ġnap": 1686,
      "Ġtower": 1687,
      "Ġjoin": 1688,
      "Ġmouth": 1689,
      "Sure": 1690,
      "Ġprincess": 1691,
      "ear": 1692,
      "cked": 1693,
      "Ġeverywhere": 1694,
      "Ġem": 1695,
      "Ġdolls": 1696,
      "Ġhelping": 1697,
      "Ġje": 1698,
      "Ġmost": 1699,
      "ipped": 1700,
      "Ġmonkey": 1701,
      "Ġacross": 1702,
      "Ġdisapp": 1703,
      "Ġtwins": 1704,
      "ming": 1705,
      "Ġthrew": 1706,
      "Ġfarmer": 1707,
      "Ġsign": 1708,
      "set": 1709,
      "Ġdoctor": 1710,
      "de": 1711,
      "Ġstepped": 1712,
      "Ġsame": 1713,
      "Ġdirty": 1714,
      "ored": 1715,
      "Ġheavy": 1716,
      "ĠDaddy": 1717,
      "Ġbee": 1718,
      "Why": 1719,
      "Ġcrying": 1720,
      "Ġfruit": 1721,
      "Ġbite": 1722,
      "eared": 1723,
      "Hi": 1724,
      "Ġcarrot": 1725,
      "Ġwords": 1726,
      "Ġbowl": 1727,
      "Ġhoped": 1728,
      "Ġheal": 1729,
      "Ġstre": 1730,
      "bble": 1731,
      "Ġheart": 1732,
      "Ġclosed": 1733,
      "ere": 1734,
      "Ġpass": 1735,
      "Ġspr": 1736,
      "ĠFl": 1737,
      "Ġhig": 1738,
      "ĠMr": 1739,
      "Ġbelieve": 1740,
      "Ġwouldn": 1741,
      "Ġbath": 1742,
      "ident": 1743,
      "Ġstuck": 1744,
      "Ġteac": 1745,
      "Ġacc": 1746,
      "Ġtown": 1747,
      "asket": 1748,
      "Ġbasket": 1749,
      "Ġcour": 1750,
      "chool": 1751,
      "Ġfeels": 1752,
      "Ġbutt": 1753,
      "Ġbuck": 1754,
      "Ġcray": 1755,
      "Ġatt": 1756,
      "Ġmix": 1757,
      "Ġbrown": 1758,
      "Ġcoll": 1759,
      "iting": 1760,
      "Ġsuddenly": 1761,
      "Ġfairy": 1762,
      "Ġschool": 1763,
      "Ġchair": 1764,
      "Ġeating": 1765,
      "Ġcourse": 1766,
      "Ġpushed": 1767,
      "Ġgentle": 1768,
      "Ġclapped": 1769,
      "ord": 1770,
      "ventually": 1771,
      "Ġmin": 1772,
      "Ġpack": 1773,
      "Ġhit": 1774,
      "pping": 1775,
      "Ġpers": 1776,
      "Ġneigh": 1777,
      "issed": 1778,
      "ts": 1779,
      "Ġwithout": 1780,
      "Ġstand": 1781,
      "Ġneighb": 1782,
      "Ġpocket": 1783,
      "ors": 1784,
      "Ġhigher": 1785,
      "Ġwelcome": 1786,
      "Ġteacher": 1787,
      "Ġdrove": 1788,
      "Ġswings": 1789,
      "orrow": 1790,
      "Ġyard": 1791,
      "Ġsmo": 1792,
      "ier": 1793,
      "Ġtoday": 1794,
      "Ġnoises": 1795,
      "Ġforget": 1796,
      "Ġcheered": 1797,
      "ourn": 1798,
      "Ġgames": 1799,
      "ho": 1800,
      "Ġben": 1801,
      "Ġwings": 1802,
      "Ġjourn": 1803,
      "br": 1804,
      "Ġneck": 1805,
      "Ġturns": 1806,
      "Ġpiece": 1807,
      "umb": 1808,
      "ract": 1809,
      "Mia": 1810,
      "Ġlonger": 1811,
      "Ġdry": 1812,
      "Ġfree": 1813,
      "Ġsang": 1814,
      "vel": 1815,
      "Finally": 1816,
      "ead": 1817,
      "Ġhugs": 1818,
      "Ġexplained": 1819,
      "ible": 1820,
      "ĠMary": 1821,
      "oun": 1822,
      "Ġinst": 1823,
      "Ġcorn": 1824,
      "phant": 1825,
      "cy": 1826,
      "Ġhappen": 1827,
      "Ġaccident": 1828,
      "Ġalong": 1829,
      "Ġthrow": 1830,
      "Ġlate": 1831,
      "Ġshoes": 1832,
      "Ġmiss": 1833,
      "Ġwell": 1834,
      "ches": 1835,
      "Ġyoung": 1836,
      "Ġlon": 1837,
      "Ġtrou": 1838,
      "ment": 1839,
      "itting": 1840,
      "Ġsea": 1841,
      "Ġsecret": 1842,
      "Ġstories": 1843,
      "Ġshap": 1844,
      "Ġelephant": 1845,
      "Ġwish": 1846,
      "Ġpurp": 1847,
      "Ġsinging": 1848,
      "Ġlonely": 1849,
      "Ġadventures": 1850,
      "Ġshook": 1851,
      "Ġfence": 1852,
      "Ġmoved": 1853,
      "Ġstars": 1854,
      "ek": 1855,
      "Ġlunch": 1856,
      "Ġdist": 1857,
      "Ġupset": 1858,
      "Ġapple": 1859,
      "Ġstar": 1860,
      "Ġbelong": 1861,
      "ĠGrandma": 1862,
      "bby": 1863,
      "Ġph": 1864,
      "aughty": 1865,
      "Ġmine": 1866,
      "Ġnaughty": 1867,
      "Ġkey": 1868,
      "Ġplac": 1869,
      "Ġrocks": 1870,
      "Ġtom": 1871,
      "Ġnearby": 1872,
      "Ġcaught": 1873,
      "fused": 1874,
      "Do": 1875,
      "Ġstreet": 1876,
      "Ġwhe": 1877,
      "Ġshop": 1878,
      "ountain": 1879,
      "Ġexploring": 1880,
      "Ġdropped": 1881,
      "Ġpurple": 1882,
      "yard": 1883,
      "ocked": 1884,
      "Ġexp": 1885,
      "Ġwise": 1886,
      "Ġjar": 1887,
      "Ġbring": 1888,
      "Ġbackyard": 1889,
      "bow": 1890,
      "Ġtaking": 1891,
      "llo": 1892,
      "Ġorange": 1893,
      "ail": 1894,
      "Ġswam": 1895,
      "Ġsoup": 1896,
      "ub": 1897,
      "Ġshapes": 1898,
      "ces": 1899,
      "ward": 1900,
      "Ġseemed": 1901,
      "aughter": 1902,
      "Ġinv": 1903,
      "Ġowl": 1904,
      "Ġfarm": 1905,
      "Ġdrink": 1906,
      "Ġes": 1907,
      "ĠMama": 1908,
      "Ġresp": 1909,
      "Ġbucket": 1910,
      "Ġpast": 1911,
      "Ġyear": 1912,
      "ĠEmma": 1913,
      "Ġca": 1914,
      "Ġrelie": 1915,
      "Ġmail": 1916,
      "ush": 1917,
      "ions": 1918,
      "Ġstu": 1919,
      "Ġbench": 1920,
      "ĠThank": 1921,
      "Ġaf": 1922,
      "Ġbat": 1923,
      "Ġbusy": 1924,
      "adow": 1925,
      "ung": 1926,
      "Ġdes": 1927,
      "Ġtakes": 1928,
      "Ġmad": 1929,
      "Ġnothing": 1930,
      "Ġthough": 1931,
      "Ġ3": 1932,
      "Ġnose": 1933,
      "Ġjuice": 1934,
      "Ġsounds": 1935,
      "Ġwoke": 1936,
      "sy": 1937,
      "ity": 1938,
      "Ġarms": 1939,
      "Ġcomes": 1940,
      "Ġtiny": 1941,
      "ese": 1942,
      "fish": 1943,
      "ĠO": 1944,
      "Ġdaughter": 1945,
      "Ġwondered": 1946,
      "Ġcou": 1947,
      "cing": 1948,
      "cks": 1949,
      "Ġrainbow": 1950,
      "Ġmark": 1951,
      "Ġholding": 1952,
      "Ġnest": 1953,
      "Ġcow": 1954,
      "And": 1955,
      "col": 1956,
      "Ġfit": 1957,
      "thday": 1958,
      "Ġsitting": 1959,
      "to": 1960,
      "Ġbranch": 1961,
      "ining": 1962,
      "Ġcir": 1963,
      "Ġboun": 1964,
      "Ġpig": 1965,
      "read": 1966,
      "ose": 1967,
      "Ġsick": 1968,
      "ĠFluffy": 1969,
      "raid": 1970,
      "ĠInside": 1971,
      "Ġob": 1972,
      "Ġafraid": 1973,
      "weet": 1974,
      "Ġcoat": 1975,
      "Ġpatient": 1976,
      "Ġround": 1977,
      "Ġkite": 1978,
      "pper": 1979,
      "Ġgift": 1980,
      "Ġdriver": 1981,
      "Ġmil": 1982,
      "Ġcute": 1983,
      "vered": 1984,
      "Ġforever": 1985,
      "Ġtou": 1986,
      "Ġtouched": 1987,
      "Ġpeace": 1988,
      "Ġrelieved": 1989,
      "Ġlift": 1990,
      "Ġpromise": 1991,
      "ours": 1992,
      "idge": 1993,
      "Ġbread": 1994,
      "Ġking": 1995,
      "Ġspoon": 1996,
      "Ġhuge": 1997,
      "Ġletter": 1998,
      "ĠCome": 1999,
      "Ġhello": 2000,
      "Ġcarry": 2001,
      "Ġgrab": 2002,
      "Of": 2003,
      "sting": 2004,
      "Ġfing": 2005,
      "Ġbirthday": 2006,
      "Ġband": 2007,
      "eth": 2008,
      "og": 2009,
      "ĠJimmy": 2010,
      "Ġact": 2011,
      "ittens": 2012,
      "Ġcheese": 2013,
      "ĠFinally": 2014,
      "Ġpower": 2015,
      "Ġintere": 2016,
      "let": 2017,
      "Ġexciting": 2018,
      "cer": 2019,
      "Ġdays": 2020,
      "Hey": 2021,
      "Ġswimming": 2022,
      "Ġshell": 2023,
      "Ġwhist": 2024,
      "ĠSammy": 2025,
      "unt": 2026,
      "Ġonto": 2027,
      "sc": 2028,
      "Ġgigg": 2029,
      "board": 2030,
      "Ġjourney": 2031,
      "Ġlaughing": 2032,
      "Ġcraw": 2033,
      "Ġcreature": 2034,
      "Ġwra": 2035,
      "Ġsunny": 2036,
      "Ġlife": 2037,
      "Ġkick": 2038,
      "Ġmist": 2039,
      "Ġdisco": 2040,
      "shine": 2041,
      "Ġcomfort": 2042,
      "Ġwom": 2043,
      "arp": 2044,
      "Ġret": 2045,
      "Ġwoman": 2046,
      "Ġhope": 2047,
      "ped": 2048,
      "itch": 2049,
      "gged": 2050,
      "Ġbush": 2051,
      "Ġgives": 2052,
      "Ġinstead": 2053,
      "Ġmilk": 2054,
      "Ġcozy": 2055,
      "Ġputs": 2056,
      "alm": 2057,
      "Ġbottle": 2058,
      "Ġinc": 2059,
      "gg": 2060,
      "Ġsharp": 2061,
      "Ġpointed": 2062,
      "Ġimag": 2063,
      "Ġspin": 2064,
      "ten": 2065,
      "ĠSoon": 2066,
      "Ġlucky": 2067,
      "Ġsunshine": 2068,
      "Ġear": 2069,
      "ness": 2070,
      "Ġcave": 2071,
      "Ġreturn": 2072,
      "Ġwatching": 2073,
      "Ġcollect": 2074,
      "Ġducks": 2075,
      "Ġpudd": 2076,
      "Ġaccidentally": 2077,
      "Ġhor": 2078,
      "Ġeas": 2079,
      "Ġlater": 2080,
      "Ġsmiling": 2081,
      "Ġsuc": 2082,
      "ball": 2083,
      "Ġhoney": 2084,
      "Ġroad": 2085,
      "Ġanyone": 2086,
      "Ġfan": 2087,
      "Ġspo": 2088,
      "Ġent": 2089,
      "blem": 2090,
      "Ġproblem": 2091,
      "Later": 2092,
      "ndp": 2093,
      "Ġbought": 2094,
      "els": 2095,
      "Ġtalked": 2096,
      "itten": 2097,
      "ize": 2098,
      "Ġgather": 2099,
      "round": 2100,
      "Ġsearched": 2101,
      "Ġapples": 2102,
      "Ġperson": 2103,
      "Good": 2104,
      "Ġsandw": 2105,
      "Ġhealthy": 2106,
      "Ġce": 2107,
      "Ġmeet": 2108,
      "irt": 2109,
      "Ġtrouble": 2110,
      "Ġloves": 2111,
      "Ġcrayons": 2112,
      "Ġrope": 2113,
      "Ġinteresting": 2114,
      "Ġpop": 2115,
      "Ġclouds": 2116,
      "ont": 2117,
      "Ġtasty": 2118,
      "Ġsu": 2119,
      "Ġkiss": 2120,
      "Ġbutton": 2121,
      "Ġclever": 2122,
      "Ġplane": 2123,
      "amed": 2124,
      "Ġsmelled": 2125,
      "Ġadm": 2126,
      "ove": 2127,
      "Ġpile": 2128,
      "Ġwide": 2129,
      "Ġmach": 2130,
      "eb": 2131,
      "ĠTweet": 2132,
      "Ġmatter": 2133,
      "Ġzoom": 2134,
      "ÅĵI": 2135,
      "Ġpres": 2136,
      "Ġshining": 2137,
      "owed": 2138,
      "Ġpar": 2139,
      "Ġfront": 2140,
      "Ġorgan": 2141,
      "Ġprot": 2142,
      "ĠWith": 2143,
      "Ġfeather": 2144,
      "Ġeag": 2145,
      "aur": 2146,
      "Ġpath": 2147,
      "ĠEll": 2148,
      "Lucy": 2149,
      "Ġvill": 2150,
      "Ġstorm": 2151,
      "Ġspotted": 2152,
      "Ġrespect": 2153,
      "Ġscreamed": 2154,
      "Ġprotect": 2155,
      "Ġmud": 2156,
      "Ġpract": 2157,
      "ndpa": 2158,
      "Ġzoo": 2159,
      "Come": 2160,
      "Ġpuzz": 2161,
      "Ġsaf": 2162,
      "Ġap": 2163,
      "Ġspid": 2164,
      "erly": 2165,
      "Ġval": 2166,
      "Ġsnake": 2167,
      "isa": 2168,
      "Ġmyster": 2169,
      "Ġasleep": 2170,
      "Ġlovely": 2171,
      "epend": 2172,
      "Ġbark": 2173,
      "Ġquest": 2174,
      "Ġwild": 2175,
      "Ġneighbor": 2176,
      "Ġappeared": 2177,
      "Ġanswer": 2178,
      "Ġseat": 2179,
      "ale": 2180,
      "Ġhorse": 2181,
      "Ġsnowman": 2182,
      "Ġpresent": 2183,
      "Ġdanced": 2184,
      "Lila": 2185,
      "Ġcard": 2186,
      "Ġteach": 2187,
      "Ġhon": 2188,
      "oose": 2189,
      "Ġwhich": 2190,
      "Ġminut": 2191,
      "Ġpill": 2192,
      "Ġsur": 2193,
      "ĠSomet": 2194,
      "Ġcheer": 2195,
      "Ġthin": 2196,
      "ert": 2197,
      "Ġgoes": 2198,
      "ond": 2199,
      "een": 2200,
      "ex": 2201,
      "Just": 2202,
      "Ġwhole": 2203,
      "Ġtries": 2204,
      "Ġgently": 2205,
      "Ġforgive": 2206,
      "Bob": 2207,
      "Ġwearing": 2208,
      "Ġmed": 2209,
      "ching": 2210,
      "ular": 2211,
      "St": 2212,
      "Ġconfused": 2213,
      "Ġdi": 2214,
      "Ġphone": 2215,
      "Ġcorner": 2216,
      "Ġplaces": 2217,
      "Ġimpress": 2218,
      "Ġgiant": 2219,
      "Ġrolled": 2220,
      "Ġteeth": 2221,
      "Ġdirt": 2222,
      "Ġtrip": 2223,
      "Ġmind": 2224,
      "Ġrude": 2225,
      "Ġshr": 2226,
      "cean": 2227,
      "Ġslid": 2228,
      "ĠEmily": 2229,
      "Ġocean": 2230,
      "Every": 2231,
      "Ġlive": 2232,
      "ĠGo": 2233,
      "Ġspent": 2234,
      "izz": 2235,
      "Ġpretended": 2236,
      "itty": 2237,
      "Ġdrive": 2238,
      "Ġworm": 2239,
      "Ġash": 2240,
      "ssed": 2241,
      "Ġtasted": 2242,
      "ĠHow": 2243,
      "Ġsupp": 2244,
      "Ġsplas": 2245,
      "Ġcalm": 2246,
      "Ġcookie": 2247,
      "la": 2248,
      "Ġlad": 2249,
      "Ġfaces": 2250,
      "Ġser": 2251,
      "Ġoven": 2252,
      "Ġpour": 2253,
      "nic": 2254,
      "ĠCh": 2255,
      "Ġdelight": 2256,
      "ĠMittens": 2257,
      "Ġlay": 2258,
      "Ġcoin": 2259,
      "Ġlast": 2260,
      "Ġpicnic": 2261,
      "Ġwave": 2262,
      "Ġfurry": 2263,
      "Ġpan": 2264,
      "Ġfeet": 2265,
      "Ġrec": 2266,
      "In": 2267,
      "ato": 2268,
      "Ġmachine": 2269,
      "Ġring": 2270,
      "Ġchick": 2271,
      "ones": 2272,
      "unk": 2273,
      "Ġhelpful": 2274,
      "Ġwip": 2275,
      "Ġeventually": 2276,
      "Ġban": 2277,
      "Ġpush": 2278,
      "Ġemb": 2279,
      "Ġremind": 2280,
      "Ġbubble": 2281,
      "umber": 2282,
      "Ġladder": 2283,
      "Ġtomorrow": 2284,
      "Ġsack": 2285,
      "Ġcart": 2286,
      "Ġign": 2287,
      "Ġsal": 2288,
      "Ġrep": 2289,
      "Ġbell": 2290,
      "ĠJenny": 2291,
      "Ġcouch": 2292,
      "Ġtun": 2293,
      "Ġtid": 2294,
      "Ġneckl": 2295,
      "Ġspread": 2296,
      "Ġblew": 2297,
      "Ġspider": 2298,
      "Ġbuilding": 2299,
      "ator": 2300,
      "Ġstret": 2301,
      "Ġbugs": 2302,
      "arge": 2303,
      "Ġtool": 2304,
      "Ġsmooth": 2305,
      "Ġtalking": 2306,
      "Ġchocol": 2307,
      "Ġrob": 2308,
      "Ġfoot": 2309,
      "Ġsel": 2310,
      "Ġshy": 2311,
      "Ġhiding": 2312,
      "hile": 2313,
      "Ġmountain": 2314,
      "ĠMum": 2315,
      "Ġknee": 2316,
      "ighed": 2317,
      "Ġfold": 2318,
      "als": 2319,
      "mo": 2320,
      "arra": 2321,
      "Ġchased": 2322,
      "Ġfighting": 2323,
      "ife": 2324,
      "Ġsongs": 2325,
      "not": 2326,
      "Soon": 2327,
      "Ġembarra": 2328,
      "Ġwore": 2329,
      "Ġleaf": 2330,
      "Ġpool": 2331,
      "Ġwrite": 2332,
      "Ġpuddle": 2333,
      "Ġvillage": 2334,
      "Ġwaiting": 2335,
      "Ġcannot": 2336,
      "Ġwhenever": 2337,
      "Ġant": 2338,
      "ĠAl": 2339,
      "Ġfinish": 2340,
      "Ġstep": 2341,
      "Tommy": 2342,
      "Ġcloth": 2343,
      "Ġtreats": 2344,
      "Ġhum": 2345,
      "lex": 2346,
      "My": 2347,
      "ĠSt": 2348,
      "Ġcross": 2349,
      "Ġpaw": 2350,
      "Ġmaybe": 2351,
      "Ġselfish": 2352,
      "Ġrobot": 2353,
      "Ġbanan": 2354,
      "ĠSometimes": 2355,
      "oph": 2356,
      "Ġchocolate": 2357,
      "Ġcoo": 2358,
      "Ġtaste": 2359,
      "box": 2360,
      "ĠJust": 2361,
      "ult": 2362,
      "Ġbarked": 2363,
      "Ġstring": 2364,
      "Ġspe": 2365,
      "ĠEverywhere": 2366,
      "Ġlarge": 2367,
      "Ġnet": 2368,
      "Please": 2369,
      "Ġpeaceful": 2370,
      "Ġtidy": 2371,
      "Ġstra": 2372,
      "Ġsol": 2373,
      "Ġcolour": 2374,
      "ĠJake": 2375,
      "umpy": 2376,
      "Ġwash": 2377,
      "Ġgen": 2378,
      "elly": 2379,
      "Ġnecklace": 2380,
      "Ġple": 2381,
      "Ġfixed": 2382,
      "Ġshelf": 2383,
      "old": 2384,
      "Ġstone": 2385,
      "ĠLe": 2386,
      "ĠPlease": 2387,
      "hnn": 2388,
      "Ġscar": 2389,
      "Ġspray": 2390,
      "Ġ'": 2391,
      "lebr": 2392,
      "arm": 2393,
      "Ġstir": 2394,
      "Ġcelebr": 2395,
      "orry": 2396,
      "oin": 2397,
      "ĠTV": 2398,
      "iger": 2399,
      "ĠLisa": 2400,
      "ungle": 2401,
      "ird": 2402,
      "Ġmissed": 2403,
      "Ġdeter": 2404,
      "Ġcrab": 2405,
      "Now": 2406,
      "Ġhears": 2407,
      "Ġcreative": 2408,
      "ĠTheir": 2409,
      "Ġembarrassed": 2410,
      "Dad": 2411,
      "Ġtrust": 2412,
      "Ġjungle": 2413,
      "Ġforward": 2414,
      "airs": 2415,
      "Ġwhis": 2416,
      "Ġdeterm": 2417,
      "Ġjumping": 2418,
      "hnny": 2419,
      "ĠSome": 2420,
      "Ġsticks": 2421,
      "urse": 2422,
      "Ġcarrots": 2423,
      "Ġsharing": 2424,
      "Ġhel": 2425,
      "Ġlanded": 2426,
      "Ġwhistle": 2427,
      "ĠAnn": 2428,
      "Mum": 2429,
      "Ġplate": 2430,
      "most": 2431,
      "Ġshirt": 2432,
      "Ġdisappoin": 2433,
      "Ġtells": 2434,
      "Ġknocked": 2435,
      "Ġtea": 2436,
      "ned": 2437,
      "ets": 2438,
      "ian": 2439,
      "Ġmoon": 2440,
      "Ġlegs": 2441,
      "Ġdecor": 2442,
      "ĠDon": 2443,
      "Ġalmost": 2444,
      "Ġsour": 2445,
      "Ġemp": 2446,
      "Ġashamed": 2447,
      "getable": 2448,
      "dge": 2449,
      "Ġempty": 2450,
      "Ġgrew": 2451,
      "ground": 2452,
      "Ġvegetable": 2453,
      "Ġgray": 2454,
      "Ġsheep": 2455,
      "Ġgener": 2456,
      "Ġbreath": 2457,
      "ying": 2458,
      "Ġsplash": 2459,
      "Ġmeant": 2460,
      "Ġtightly": 2461,
      "Ġpolice": 2462,
      "Be": 2463,
      "aking": 2464,
      "Ġsave": 2465,
      "Ġmeadow": 2466,
      "erp": 2467,
      "Ġbal": 2468,
      "Ġgas": 2469,
      "Ġstood": 2470,
      "Ġwhisp": 2471,
      "ĠWhy": 2472,
      "Ġyelled": 2473,
      "dle": 2474,
      "Ġjew": 2475,
      "Ġunderstood": 2476,
      "Sarah": 2477,
      "Ġnods": 2478,
      "ĠTeddy": 2479,
      "Ġhonest": 2480,
      "Ġthese": 2481,
      "ital": 2482,
      "Ġber": 2483,
      "Ġdisappointed": 2484,
      "Ġpay": 2485,
      "Ġcarried": 2486,
      "Ġsnacks": 2487,
      "arl": 2488,
      "Ġsuccess": 2489,
      "den": 2490,
      "Ġpillow": 2491,
      "Ġhosp": 2492,
      "Ġkitten": 2493,
      "Ġhours": 2494,
      "Ġseek": 2495,
      "ustr": 2496,
      "Ġhospital": 2497,
      "Ġgold": 2498,
      "Ġgun": 2499,
      "Ġsparkly": 2500,
      "Ġship": 2501,
      "Ġbored": 2502,
      "Stop": 2503,
      "Jim": 2504,
      "Ġline": 2505,
      "Ġnut": 2506,
      "ork": 2507,
      "Ġpizz": 2508,
      "vous": 2509,
      "Ġlem": 2510,
      "Ġpowerful": 2511,
      "Molly": 2512,
      "Ġspicy": 2513,
      "Where": 2514,
      "obby": 2515,
      "kin": 2516,
      "Ġshore": 2517,
      "Ġplants": 2518,
      "ano": 2519,
      "ĠEven": 2520,
      "Ġbedroom": 2521,
      "Ġgenerous": 2522,
      "Ġfrustr": 2523,
      "Ġtest": 2524,
      "Ġpuzzle": 2525,
      "ĠBe": 2526,
      "Ġhidden": 2527,
      "Ġjelly": 2528,
      "body": 2529,
      "ĠZ": 2530,
      "ĠTogether": 2531,
      "ony": 2532,
      "hin": 2533,
      "ina": 2534,
      "Ġtaught": 2535,
      "Ġeasy": 2536,
      "Ġdrew": 2537,
      "Ġwaves": 2538,
      "Ġglass": 2539,
      "Ġreturned": 2540,
      "Ġfear": 2541,
      "Ġmysterious": 2542,
      "iff": 2543,
      "Ġsighed": 2544,
      "Ġstanding": 2545,
      "Ġmot": 2546,
      "Ġfeed": 2547,
      "ĠPeter": 2548,
      "Ġseed": 2549,
      "ĠRex": 2550,
      "Ġscarf": 2551,
      "Ġdetermined": 2552,
      "Ġpin": 2553,
      "Ġclass": 2554,
      "Ġknowing": 2555,
      "To": 2556,
      "Ġgroup": 2557,
      "Ġblow": 2558,
      "Ġkissed": 2559,
      "cles": 2560,
      "Ġchew": 2561,
      "Ġpizza": 2562,
      "itter": 2563,
      "Ġvan": 2564,
      "Ġhur": 2565,
      "Ġthankful": 2566,
      "erpill": 2567,
      "Ġcaterpill": 2568,
      "Ġpolite": 2569,
      "Ġfinger": 2570,
      "Ġav": 2571,
      "Ġcries": 2572,
      "Ġsleepy": 2573,
      "Ġmessy": 2574,
      "Ġner": 2575,
      "Ġfrustrated": 2576,
      "Ġpri": 2577,
      "Ġcloset": 2578,
      "gly": 2579,
      "Ġyourself": 2580,
      "aul": 2581,
      "Ġminutes": 2582,
      "'d": 2583,
      "Ġtears": 2584,
      "Ġfancy": 2585,
      "Ġhang": 2586,
      "Sorry": 2587,
      "Ġburn": 2588,
      "Ġugly": 2589,
      "Ġsold": 2590,
      "Ġpoor": 2591,
      "work": 2592,
      "Ġnervous": 2593,
      "Ġgate": 2594,
      "Ġsandwich": 2595,
      "Ġrad": 2596,
      "Ġprince": 2597,
      "Ġwis": 2598,
      "Ġcrown": 2599,
      "Ġfig": 2600,
      "era": 2601,
      "Ġlock": 2602,
      "Ġesc": 2603,
      "Ġreg": 2604,
      "Mama": 2605,
      "Ġspoil": 2606,
      "usie": 2607,
      "Ġgrumpy": 2608,
      "oof": 2609,
      "Are": 2610,
      "oop": 2611,
      "Ġwolf": 2612,
      "Ġpassed": 2613,
      "Ġtick": 2614,
      "Ġpir": 2615,
      "pack": 2616,
      "Ġtwirl": 2617,
      "ote": 2618,
      "Ġhopping": 2619,
      "Ġgathered": 2620,
      "Ġexcite": 2621,
      "Ġbridge": 2622,
      "Ġscr": 2623,
      "af": 2624,
      "Ġoften": 2625,
      "Ġmummy": 2626,
      "iddle": 2627,
      "fl": 2628,
      "Ġflag": 2629,
      "ensive": 2630,
      "Ġchest": 2631,
      "Ġdrop": 2632,
      "osaur": 2633,
      "Ġexpensive": 2634,
      "selves": 2635,
      "Ġcaterpillar": 2636,
      "Ġboring": 2637,
      "Ġvase": 2638,
      "Ġtent": 2639,
      "issors": 2640,
      "Ġtaken": 2641,
      "illed": 2642,
      "sist": 2643,
      "Their": 2644,
      "Ġmir": 2645,
      "Ġpress": 2646,
      "Ġlit": 2647,
      "Ġleg": 2648,
      "mb": 2649,
      "ĠJohnny": 2650,
      "Ġsaved": 2651,
      "Ġcand": 2652,
      "Ġscissors": 2653,
      "izzy": 2654,
      "Ġfil": 2655,
      "Ġdinosaur": 2656,
      "Ġgets": 2657,
      "Ġdancing": 2658,
      "Ġanswered": 2659,
      "Ġtrue": 2660,
      "Ġpicks": 2661,
      "Ġexcitement": 2662,
      "Ġworking": 2663,
      "Ġdeer": 2664,
      "Ġones": 2665,
      "Jane": 2666,
      "Ġspend": 2667,
      "Who": 2668,
      "ual": 2669,
      "Ġmistake": 2670,
      "Ġclown": 2671,
      "ĠLittle": 2672,
      "Ġwagged": 2673,
      "Ġmiddle": 2674,
      "uce": 2675,
      "ĠBr": 2676,
      "Ġboss": 2677,
      "Ġfruits": 2678,
      "ror": 2679,
      "que": 2680,
      "ella": 2681,
      "Ġgiggled": 2682,
      "Ġwander": 2683,
      "Ġtie": 2684,
      "Ġpleased": 2685,
      "Ġcomfortable": 2686,
      "ĠLeo": 2687,
      "ser": 2688,
      "ecially": 2689,
      "Ġbrush": 2690,
      "light": 2691,
      "Ġmov": 2692,
      "Ġknight": 2693,
      "ĠOK": 2694,
      "ates": 2695,
      "Ġmedic": 2696,
      "Ġrocket": 2697,
      "Ġpacked": 2698,
      "Ġasking": 2699,
      "ugar": 2700,
      "Ġok": 2701,
      "Ġbone": 2702,
      "Ġmatch": 2703,
      "pecially": 2704,
      "ots": 2705,
      "Ġstuff": 2706,
      "Ġespecially": 2707,
      "Ġdrum": 2708,
      "Ġdest": 2709,
      "Ġsight": 2710,
      "iness": 2711,
      "Ġwalks": 2712,
      "ĠNo": 2713,
      "Sp": 2714,
      "Ġvegetables": 2715,
      "Ġnumber": 2716,
      "Ġdogs": 2717,
      "Ġmedicine": 2718,
      "Ġdistance": 2719,
      "Ġadd": 2720,
      "ushed": 2721,
      "Ġdrawing": 2722,
      "Ġcalling": 2723,
      "Ġsmelly": 2724,
      "ggs": 2725,
      "Ġclap": 2726,
      "Ġlazy": 2727,
      "Ġchange": 2728,
      "Ġlose": 2729,
      "Ġtape": 2730,
      "Ġsugar": 2731,
      "Ġcap": 2732,
      "Ġfake": 2733,
      "Ġweak": 2734,
      "Ġeggs": 2735,
      "Ġtwist": 2736,
      "Ġmoving": 2737,
      "Ġmirror": 2738,
      "Ġplayground": 2739,
      "ĠBl": 2740,
      "Ġdisappeared": 2741,
      "ha": 2742,
      "aged": 2743,
      "Ġglue": 2744,
      "Ġlying": 2745,
      "Ġgar": 2746,
      "Ġbecome": 2747,
      "Ġlicked": 2748,
      "ĠIf": 2749,
      "Ġweek": 2750,
      "Ġcage": 2751,
      "ete": 2752,
      "Ġexam": 2753,
      "ory": 2754,
      "Ġsweetie": 2755,
      "Ġflut": 2756,
      "Ġfeathers": 2757,
      "Ġnod": 2758,
      "Ġwheel": 2759,
      "Ġhorn": 2760,
      "Ġfluffy": 2761,
      "elp": 2762,
      "Ġbake": 2763,
      "Ġruined": 2764,
      "Ġeld": 2765,
      "Ġdish": 2766,
      "Me": 2767,
      "Ġsplashed": 2768,
      "Ġdrank": 2769,
      "Ġbathroom": 2770,
      "Ġyours": 2771,
      "Ġrid": 2772,
      "Ġmeasure": 2773,
      "Ġlead": 2774,
      "Ġbody": 2775,
      "Ġfamous": 2776,
      "Ġroar": 2777,
      "Ġrelax": 2778,
      "Ġincred": 2779,
      "ating": 2780,
      "Ġsell": 2781,
      "Ġnoisy": 2782,
      "Ġquestions": 2783,
      "Ġmic": 2784,
      "Ġskipped": 2785,
      "Ġqueen": 2786,
      "uggest": 2787,
      "Ġed": 2788,
      "Ġsuggest": 2789,
      "Ġstones": 2790,
      "Ġballs": 2791,
      "Ġdecide": 2792,
      "Ġlemon": 2793,
      "hip": 2794,
      "Ġcri": 2795,
      "Ġclear": 2796,
      "Ġmoms": 2797,
      "ination": 2798,
      "Ġext": 2799,
      "Ġjuicy": 2800,
      "yal": 2801,
      "Ġshows": 2802,
      "Ġcovered": 2803,
      "Ġord": 2804,
      "Ġcheck": 2805,
      "Ġlamp": 2806,
      "Ġglow": 2807,
      "Ġcontent": 2808,
      "Help": 2809,
      "Ġswan": 2810,
      "eez": 2811,
      "Ġpray": 2812,
      "Ġeager": 2813,
      "Ġrich": 2814,
      "Ġdig": 2815,
      "Ġwrote": 2816,
      "Ġtowel": 2817,
      "ĠAt": 2818,
      "Ġmotor": 2819,
      "illi": 2820,
      "?\".": 2821,
      "Ġshoot": 2822,
      "Ġincredible": 2823,
      "Ġind": 2824,
      "Ġsailed": 2825,
      "Ġteam": 2826,
      "alous": 2827,
      "Ġcleaned": 2828,
      "Ġrare": 2829,
      "Ġsoap": 2830,
      "Ġjealous": 2831,
      "Ġfather": 2832,
      "Ġadventur": 2833,
      "Ġloyal": 2834,
      "Ġorganized": 2835,
      "Ġcoins": 2836,
      "Ġfine": 2837,
      "Ġboard": 2838,
      "Ġbranches": 2839,
      "Ġextra": 2840,
      "Ġboys": 2841,
      "Ġmap": 2842,
      "umbled": 2843,
      "Ġneeds": 2844,
      "Ġelderly": 2845,
      "ĠEnd": 2846,
      "Ġaw": 2847,
      "Ġborrow": 2848,
      "Ġfigure": 2849,
      "imp": 2850,
      "Ġadventurous": 2851,
      "Ġhurts": 2852,
      "Sally": 2853,
      "Ġcost": 2854,
      "Ġchicken": 2855,
      "Ġbubbles": 2856,
      "Ġdiscovered": 2857,
      "Ġmod": 2858,
      "keep": 2859,
      "Ġfis": 2860,
      "Ġham": 2861,
      "Ġfrown": 2862,
      "Ġtag": 2863,
      "Ġtiger": 2864,
      "Ġrealised": 2865,
      "Ġjoke": 2866,
      "Ġgarage": 2867,
      "land": 2868,
      "Well": 2869,
      "Ġoffered": 2870,
      "Ġhappening": 2871,
      "asing": 2872,
      "ately": 2873,
      "Ġcolourful": 2874,
      "Ġstraw": 2875,
      "ique": 2876,
      "ipper": 2877,
      "Joe": 2878,
      "Ġcover": 2879,
      "fic": 2880,
      "Ġchase": 2881,
      "Ġwand": 2882,
      "ĠDan": 2883,
      "Ġlouder": 2884,
      "Ġonce": 2885,
      "Ġarg": 2886,
      "Ġjewel": 2887,
      "cil": 2888,
      "Ġtrucks": 2889,
      "ti": 2890,
      "Ġhose": 2891,
      "Ġlifted": 2892,
      "Ġunique": 2893,
      "Ġpencil": 2894,
      "Ġeye": 2895,
      "Ġsword": 2896,
      "cept": 2897,
      "Ġdiffic": 2898,
      "Ġweird": 2899,
      "Ġpump": 2900,
      "ipp": 2901,
      "ured": 2902,
      "Ġyog": 2903,
      "Ġbottom": 2904,
      "imed": 2905,
      "Ġsil": 2906,
      "Ġword": 2907,
      "Ġmanaged": 2908,
      "Ġbalance": 2909,
      "ĠMark": 2910,
      "Ġknife": 2911,
      "Ġcircle": 2912,
      "Ġthick": 2913,
      "Ġunus": 2914,
      "Ġtoug": 2915,
      "Ġhunt": 2916,
      "alk": 2917,
      "Ġcrawled": 2918,
      "ĠSusie": 2919,
      "Ġmighty": 2920,
      "Ġguess": 2921,
      "Ġdifficult": 2922,
      "ĠKitty": 2923,
      "Ġang": 2924,
      "Ġwhale": 2925,
      "Ġfright": 2926,
      "Ġbanana": 2927,
      "Ġbarn": 2928,
      "ĠBobby": 2929,
      "keeper": 2930,
      "Ġunusual": 2931,
      "Gra": 2932,
      "port": 2933,
      "Ġkindness": 2934,
      "ages": 2935,
      "Ġgiving": 2936,
      "ĠToday": 2937,
      "Ġfour": 2938,
      "aw": 2939,
      "Ġberries": 2940,
      "enny": 2941,
      "Ġedge": 2942,
      "Ġdolp": 2943,
      "Ġlaughs": 2944,
      "ĠBlue": 2945,
      "iv": 2946,
      "Ġshake": 2947,
      "olog": 2948,
      "Spot": 2949,
      "How": 2950,
      "Ġrecord": 2951,
      "Ġfool": 2952,
      "Ġharder": 2953,
      "Sue": 2954,
      "rag": 2955,
      "Ġturt": 2956,
      "Ġadded": 2957,
      "Ġdizzy": 2958,
      "ym": 2959,
      "Ġlearning": 2960,
      "Ġwrapped": 2961,
      "Ġgoat": 2962,
      "Here": 2963,
      "head": 2964,
      "Ġapolog": 2965,
      "Ġballoons": 2966,
      "ĠBrown": 2967,
      "ola": 2968,
      "Ġfavour": 2969,
      "Amy": 2970,
      "Ġpointing": 2971,
      "Ġguit": 2972,
      "Ġvalu": 2973,
      "Ġtough": 2974,
      "ready": 2975,
      "lla": 2976,
      "Ġsmoke": 2977,
      "Ġspun": 2978,
      "Ġcab": 2979,
      "Ġboxes": 2980,
      "Ġhero": 2981,
      "Ġears": 2982,
      "Ġenjoying": 2983,
      "ject": 2984,
      "Ġgrown": 2985,
      "Ġhats": 2986,
      "Ġbelonged": 2987,
      "Ġmeans": 2988,
      "Ġloudly": 2989,
      "Ġcompet": 2990,
      "Ġdepend": 2991,
      "Ġnorm": 2992,
      "erry": 2993,
      "Ġmovie": 2994,
      "Ġharm": 2995,
      "Ġshape": 2996,
      "Ġmarket": 2997,
      "Ġcircles": 2998,
      "Ġisland": 2999,
      "Ġbloom": 3000,
      "Ġbald": 3001,
      "Ġimpressed": 3002,
      "Ġagainst": 3003,
      "Ġref": 3004,
      "rage": 3005,
      "Ġalready": 3006,
      "Ġsearch": 3007,
      "uggled": 3008,
      "Ġbrothers": 3009,
      "Ġbrilli": 3010,
      "Ġchoose": 3011,
      "Ġcabin": 3012,
      "Ġfavourite": 3013,
      "und": 3014,
      "lies": 3015,
      "Ġsaying": 3016,
      "Ġfalls": 3017,
      "Ġskin": 3018,
      "Ġflash": 3019,
      "ery": 3020,
      "Ġbuttons": 3021,
      "ature": 3022,
      "Ġpainting": 3023,
      "ye": 3024,
      "Ġbrilliant": 3025,
      "Ġclay": 3026,
      "pes": 3027,
      "Ġdreamed": 3028,
      "Ġsafely": 3029,
      "Ġhelps": 3030,
      "Ġgrace": 3031,
      "Ġter": 3032,
      "Ġtrunk": 3033,
      "ilt": 3034,
      "Ġstrawber": 3035,
      "anged": 3036,
      "Ġbossy": 3037,
      "ouses": 3038,
      "Ġnormal": 3039,
      "Ġscare": 3040,
      "Ġwrap": 3041,
      "Ġpee": 3042,
      "Ġbatter": 3043,
      "Ġguitar": 3044,
      "Ġstubb": 3045,
      "Ġjack": 3046,
      "emo": 3047,
      "Ġcrayon": 3048,
      "Ġfat": 3049,
      "fast": 3050,
      "Ġrough": 3051,
      "ĠFred": 3052,
      "Ġslipped": 3053,
      "Ġcher": 3054,
      "Ġmelt": 3055,
      "Ġknows": 3056,
      "Ġproudly": 3057,
      "Ġwagon": 3058,
      "Ġvaluable": 3059,
      "Ġhouses": 3060,
      "Ġcudd": 3061,
      "gy": 3062,
      "ĠMy": 3063,
      "Ġlog": 3064,
      "Ġbreakfast": 3065,
      "Ġfrightened": 3066,
      "Ġcheerful": 3067,
      "Ġfoolish": 3068,
      "Ġstubborn": 3069,
      "ipe": 3070,
      "Ġcro": 3071,
      "Ġcompetit": 3072,
      "Ġescape": 3073,
      "Ġhappiness": 3074,
      "cient": 3075,
      "Ġpil": 3076,
      "omed": 3077,
      "Ġlibr": 3078,
      "Ġinvited": 3079,
      "Al": 3080,
      "Ġwake": 3081,
      "ĠEllie": 3082,
      "apping": 3083,
      "reen": 3084,
      "Ġfridge": 3085,
      "Ġnosy": 3086,
      "Ġstudy": 3087,
      "Ġlaw": 3088,
      "Ġshark": 3089,
      "Ġancient": 3090,
      "Ġnotice": 3091,
      "Ġbirdie": 3092,
      "Ġturtle": 3093,
      "Ġwalls": 3094,
      "Ġthu": 3095,
      "ĠAlice": 3096,
      "edient": 3097,
      "Ġcity": 3098,
      "Ġuseful": 3099,
      "ext": 3100,
      "Ġspace": 3101,
      "Ġstri": 3102,
      "Ġdelicate": 3103,
      "az": 3104,
      "Ġsounded": 3105,
      "Ġterri": 3106,
      "Ġaccept": 3107,
      "orge": 3108,
      "Ġunl": 3109,
      "Ġicy": 3110,
      "Ġtimes": 3111,
      "wards": 3112,
      "Ġfier": 3113,
      "Ġtoast": 3114,
      "Ġwiped": 3115,
      "Ġdead": 3116,
      "Ġlights": 3117,
      "Ġlean": 3118,
      "ĠRose": 3119,
      "Ġshells": 3120,
      "Ġdesign": 3121,
      "Ġexcla": 3122,
      "Ġoffice": 3123,
      "Ġroof": 3124,
      "Ġdependable": 3125,
      "ĠPete": 3126,
      "ĠMrs": 3127,
      "Ġfierce": 3128,
      "Ġdreams": 3129,
      "Ġexclaimed": 3130,
      "Ġnicely": 3131,
      "Ġmixed": 3132,
      "ĠBobo": 3133,
      "Ġtools": 3134,
      "Ġlocked": 3135,
      "Ġobedient": 3136,
      "Ġsuggested": 3137,
      "ĠMummy": 3138,
      "Ġbags": 3139,
      "Ġfingers": 3140,
      "Ġgrandpa": 3141,
      "Ġkinds": 3142,
      "Ġsmaller": 3143,
      "ache": 3144,
      "Ġcam": 3145,
      "Ġcounted": 3146,
      "arth": 3147,
      "Ġstream": 3148,
      "Ġdough": 3149,
      "Ġrode": 3150,
      "Ġlab": 3151,
      "Ġrose": 3152,
      "Ġparrot": 3153,
      "Ġstove": 3154,
      "Ġabove": 3155,
      "Ġexcitedly": 3156,
      "Ġrat": 3157,
      "Ġweal": 3158,
      "Ġpoured": 3159,
      "Ġmem": 3160,
      "Ġtele": 3161,
      "Ġlow": 3162,
      "corn": 3163,
      "Ġzip": 3164,
      "ention": 3165,
      "Ġbitter": 3166,
      "Ġstumbled": 3167,
      "kn": 3168,
      "ÅĵLet": 3169,
      "Ġjam": 3170,
      "Ġshadow": 3171,
      "Ġfountain": 3172,
      "Ġshowing": 3173,
      "na": 3174,
      "Ġscrat": 3175,
      "Ġcrack": 3176,
      "Ġsuccessful": 3177,
      "Ġegg": 3178,
      "eorge": 3179,
      "ado": 3180,
      "ĠElla": 3181,
      "Ġusing": 3182,
      "Jimmy": 3183,
      "Ġbushes": 3184,
      "oot": 3185,
      "Ġexplored": 3186,
      "Ġwitch": 3187,
      "Ġcop": 3188,
      "Ġthemselves": 3189,
      "Ġbrightly": 3190,
      "arry": 3191,
      "Ġtomato": 3192,
      "Ġindepend": 3193,
      "Ġspinning": 3194,
      "uth": 3195,
      "Ġswe": 3196,
      "Ġfrag": 3197,
      "ither": 3198,
      "Ġresc": 3199,
      "Ġpractice": 3200,
      "Ġwhispered": 3201,
      "irp": 3202,
      "Billy": 3203,
      "Ġadmired": 3204,
      "inal": 3205,
      "Ġreminded": 3206,
      "Ġpumpkin": 3207,
      "Mummy": 3208,
      "Ġgem": 3209,
      "Ġtwig": 3210,
      "Ġcostum": 3211,
      "ĠTweety": 3212,
      "Ġjolly": 3213,
      "Ġshone": 3214,
      "Ġseem": 3215,
      "dom": 3216,
      "Ġorig": 3217,
      "Ġperform": 3218,
      "Ġkicked": 3219,
      "ĠYour": 3220,
      "Ġbuilt": 3221,
      "Ġsniff": 3222,
      "Ġbounce": 3223,
      "Ġstronger": 3224,
      "Ġways": 3225,
      "Ġmagn": 3226,
      "Ġdelighted": 3227,
      "ormous": 3228,
      "Ġpopcorn": 3229,
      "!\".": 3230,
      "Ġbump": 3231,
      "ĠU": 3232,
      "Ġsteal": 3233,
      "Ġson": 3234,
      "Ġbeak": 3235,
      "Ġcleaning": 3236,
      "iable": 3237,
      "Ġenormous": 3238,
      "oppy": 3239,
      "known": 3240,
      "There": 3241,
      "Ġfre": 3242,
      "ines": 3243,
      "Ġspoiled": 3244,
      "Ġraced": 3245,
      "Ġenc": 3246,
      "Ġjoined": 3247,
      "vice": 3248,
      "Ġtummy": 3249,
      "Ġthoughtful": 3250,
      "Ġprint": 3251,
      "Ġaunt": 3252,
      "eeze": 3253,
      "Ġbees": 3254,
      "Ġfragile": 3255,
      "Ġdust": 3256,
      "Ġindependent": 3257,
      "ray": 3258,
      "Ġdove": 3259,
      "Ġeng": 3260,
      "Ġhoop": 3261,
      "Ġtunn": 3262,
      "Ġjog": 3263,
      "Ġplayful": 3264,
      "Ġhammer": 3265,
      "Ġreliable": 3266,
      "Ġchanged": 3267,
      "Ġoriginal": 3268,
      "amond": 3269,
      "ĠNemo": 3270,
      "ict": 3271,
      "anger": 3272,
      "Ġhelm": 3273,
      "anut": 3274,
      "Ġhanded": 3275,
      "ĠMike": 3276,
      "Ġunknown": 3277,
      "upid": 3278,
      "cod": 3279,
      "Ġboats": 3280,
      "Ġrubb": 3281,
      "ĠBu": 3282,
      "Ġsolve": 3283,
      "uring": 3284,
      "Ġyarn": 3285,
      "Ġdiamond": 3286,
      "Ġfinding": 3287,
      "Ġmetal": 3288,
      "Ġcone": 3289,
      "Ġbean": 3290,
      "Ġleaving": 3291,
      "ĠMar": 3292,
      "Ġchose": 3293,
      "Ġpainted": 3294,
      "Ġserious": 3295,
      "Em": 3296,
      "See": 3297,
      "atter": 3298,
      "inary": 3299,
      "Ġhalf": 3300,
      "gu": 3301,
      "Ġsink": 3302,
      "Ġpost": 3303,
      "Ġhairy": 3304,
      "Ġallowed": 3305,
      "Ġclum": 3306,
      "Ġholds": 3307,
      "Ġdoesn": 3308,
      "Ġloll": 3309,
      "Ġstat": 3310,
      "Ġacorn": 3311,
      "ipop": 3312,
      "Ġhay": 3313,
      "ĠBella": 3314,
      "ĠDucky": 3315,
      "Ġthose": 3316,
      "Ġcamera": 3317,
      "Ġrub": 3318,
      "Ġmarble": 3319,
      "mbre": 3320,
      "Ġcheap": 3321,
      "Ġyet": 3322,
      "Ġumbre": 3323,
      "Ġcrocod": 3324,
      "ience": 3325,
      "Ġbeet": 3326,
      "Ġlollipop": 3327,
      "Ġstupid": 3328,
      "ebra": 3329,
      "Ġcompass": 3330,
      "Ġgrand": 3331,
      "robe": 3332,
      "Ġopens": 3333,
      "Ġtelling": 3334,
      "Ġguard": 3335,
      "Ġforth": 3336,
      "Ġsleeping": 3337,
      "Ġwealthy": 3338,
      "Ġmis": 3339,
      "Jill": 3340,
      "Ġsalad": 3341,
      "Ġpicking": 3342,
      "Ġstairs": 3343,
      "Ġgasped": 3344,
      "Ġgoose": 3345,
      "Ġthirst": 3346,
      "Ġbrace": 3347,
      "ĠWhenever": 3348,
      "tern": 3349,
      "Ġsunfl": 3350,
      "Ġthunder": 3351,
      "ugged": 3352,
      "Ġtank": 3353,
      "Ġrushed": 3354,
      "iew": 3355,
      "ilty": 3356,
      "Ġarrow": 3357,
      "Ġenvel": 3358,
      "Ġguilty": 3359,
      "Ġangel": 3360,
      "Ġmoder": 3361,
      "ision": 3362,
      "Ġclumsy": 3363,
      "Ġpotato": 3364,
      "Ġterrible": 3365,
      "Ġzebra": 3366,
      "ÅĵYes": 3367,
      "Ġwashed": 3368,
      "Go": 3369,
      "Ġtor": 3370,
      "Ġcur": 3371,
      "Ġview": 3372,
      "Ġknock": 3373,
      "Ġthinking": 3374,
      "ĠDave": 3375,
      "Ġbarber": 3376,
      "ĠFin": 3377,
      "Ġbull": 3378,
      "Ġdolphin": 3379,
      "Ġrug": 3380,
      "Ġpeanut": 3381,
      "Ġprep": 3382,
      "Ġing": 3383,
      "Ġpopular": 3384,
      "Ġdull": 3385,
      "Ġpebble": 3386,
      "Ġmissing": 3387,
      "Ġpige": 3388,
      "Ġsquare": 3389,
      "Ġregular": 3390,
      "Ġthirsty": 3391,
      "Ġadvice": 3392,
      "ÅĵWhat": 3393,
      "Ġflex": 3394,
      "Ġsearching": 3395,
      "Ġingred": 3396,
      "Ġingredient": 3397,
      "Ġcreate": 3398,
      "Ġtem": 3399,
      "Ġmarch": 3400,
      "umbers": 3401,
      "Ġcareless": 3402,
      "Ġpersist": 3403,
      "Ġfresh": 3404,
      "ations": 3405,
      "ĠGrandpa": 3406,
      "Ġdeliver": 3407,
      "time": 3408,
      "Ġnurse": 3409,
      "com": 3410,
      "ĠFr": 3411,
      "Ġchar": 3412,
      "Ġrubbed": 3413,
      "het": 3414,
      "Ġclock": 3415,
      "Ġmodern": 3416,
      "Ġstage": 3417,
      "illa": 3418,
      "Ġcompassion": 3419,
      "Ġstranger": 3420,
      "Ġload": 3421,
      "Ġsuit": 3422,
      "Ġsauce": 3423,
      "Ġshocked": 3424,
      "gest": 3425,
      "ibb": 3426,
      "Ġcarrying": 3427,
      "eezed": 3428,
      "Ġnature": 3429,
      "Ġdriving": 3430,
      "ĠSn": 3431,
      "Ġflashlight": 3432,
      "Ġimpressive": 3433,
      "Ġstops": 3434,
      "Ġpatch": 3435,
      "uper": 3436,
      "Ġgraceful": 3437,
      "Ġsne": 3438,
      "aghet": 3439,
      "aghetti": 3440,
      "oomy": 3441,
      "Ġshiver": 3442,
      "Ġshel": 3443,
      "Ġdestro": 3444,
      "Ġfriendship": 3445,
      "Ġsparkled": 3446,
      "Ġflexible": 3447,
      "fa": 3448,
      "Ġbiggest": 3449,
      "Ġdreaming": 3450,
      "Ow": 3451,
      "Ġtied": 3452,
      "Ġending": 3453,
      "Ġengine": 3454,
      "âĤ¬âĢ": 3455,
      "Ġjacket": 3456,
      "Ġwheels": 3457,
      "Ġpirate": 3458,
      "Ġreward": 3459,
      "Ġbeetle": 3460,
      "Ġwing": 3461,
      "Ġsudden": 3462,
      "host": 3463,
      "Ġcrocodile": 3464,
      "ÅĵIt": 3465,
      "Ġpup": 3466,
      "Ġseeds": 3467,
      "Ġpeeked": 3468,
      "Ġspaghetti": 3469,
      "Ġenth": 3470,
      "Ġpant": 3471,
      "Ġdesk": 3472,
      "Ġmeal": 3473,
      "isk": 3474,
      "ellig": 3475,
      "Ġnumbers": 3476,
      "arsh": 3477,
      "Ġorder": 3478,
      "Ġcomput": 3479,
      "ikes": 3480,
      "Ġintellig": 3481,
      "Ġwarned": 3482,
      "Ġcrazy": 3483,
      "Ġpengu": 3484,
      "Ġtowers": 3485,
      "Ġstamp": 3486,
      "loo": 3487,
      "Ġumbrella": 3488,
      "Ġspilled": 3489,
      "Ġdiscover": 3490,
      "Ġenthus": 3491,
      "Ġsadly": 3492,
      "Ġnote": 3493,
      "Ġghost": 3494,
      "Ġstatue": 3495,
      "Ġpattern": 3496,
      "Ġtur": 3497,
      "Ġmask": 3498,
      "Ġmel": 3499,
      "Ġenv": 3500,
      "Ġmailbox": 3501,
      "ement": 3502,
      "Ġtruth": 3503,
      "Ġwindows": 3504,
      "Ġingredients": 3505,
      "Ġer": 3506,
      "Ġstack": 3507,
      "Ġtravel": 3508,
      "ophie": 3509,
      "Ġsurf": 3510,
      "Ġcomb": 3511,
      "ĠWhile": 3512,
      "Ġprize": 3513,
      "Ġearly": 3514,
      "ief": 3515,
      "Ġimagined": 3516,
      "Ġhandle": 3517,
      "Ġrece": 3518,
      "ĠToby": 3519,
      "Ġenvelope": 3520,
      "Ġearth": 3521,
      "Ġbent": 3522,
      "Ġsorts": 3523,
      "Ġavo": 3524,
      "io": 3525,
      "ĠLola": 3526,
      "Ġscale": 3527,
      "Ġpale": 3528,
      "ĠHere": 3529,
      "ĠMandy": 3530,
      "Ġpenny": 3531,
      "Ġtorn": 3532,
      "Ġahead": 3533,
      "Ġfork": 3534,
      "ince": 3535,
      "Ġcrane": 3536,
      "awn": 3537,
      "Ġturkey": 3538,
      "Ġbadly": 3539,
      "Ġscreen": 3540,
      "Ġpretending": 3541,
      "Ġjumps": 3542,
      "illie": 3543,
      "Ġreading": 3544,
      "Ġhumble": 3545,
      "Ġwire": 3546,
      "Ġplaced": 3547,
      "ÅĵLetÃ¢": 3548,
      "ric": 3549,
      "Ġspring": 3550,
      "Ġspoke": 3551,
      "iches": 3552,
      "Ġharmless": 3553,
      "bled": 3554,
      "ĠcouldnÃ¢": 3555,
      "Ġpersistent": 3556,
      "Ġolder": 3557,
      "Ġshut": 3558,
      "Ġperm": 3559,
      "Ġcere": 3560,
      "Ġcounting": 3561,
      "Ġgrowing": 3562,
      "Ġtunnel": 3563,
      "Ġencou": 3564,
      "Ġslides": 3565,
      "Ġliz": 3566,
      "Ġlibrary": 3567,
      "ctop": 3568,
      "Ġbracelet": 3569,
      "While": 3570,
      "Ġmush": 3571,
      "ĠGive": 3572,
      "ctopus": 3573,
      "Ġpiano": 3574,
      "Ġflute": 3575,
      "ud": 3576,
      "Ġbeauty": 3577,
      "Ġcomplet": 3578,
      "Ġcryst": 3579,
      "Ġsuper": 3580,
      "Ġparade": 3581,
      "Ġmay": 3582,
      "ĠLook": 3583,
      "ĠKim": 3584,
      "Ġcompl": 3585,
      "Ġnames": 3586,
      "ĠBear": 3587,
      "ĠPe": 3588,
      "cream": 3589,
      "Ġsofa": 3590,
      "comfort": 3591,
      "Ġscatter": 3592,
      "Ġtriang": 3593,
      "Ġcrawl": 3594,
      "Ġanx": 3595,
      "Yay": 3596,
      "Ġbutterflies": 3597,
      "Ġtrap": 3598,
      "Ġcelebrate": 3599,
      "Ġcarp": 3600,
      "Ġoctopus": 3601,
      "Ġtrash": 3602,
      "Ġcomputer": 3603,
      "Ġjug": 3604,
      "ĠPat": 3605,
      "Ġpow": 3606,
      "comfortable": 3607,
      "aid": 3608,
      "Ġtooth": 3609,
      "Ġuncomfortable": 3610,
      "Ġdestroy": 3611,
      "Ġintelligent": 3612,
      "Ġcards": 3613,
      "Ġtrick": 3614,
      "Ġanxious": 3615,
      "Ġobject": 3616,
      "Ġrefused": 3617,
      "ices": 3618,
      "Ġbeep": 3619,
      "Ġphot": 3620,
      "Ġcourage": 3621,
      "Ġvalue": 3622,
      "Ġcooking": 3623,
      "Ġhung": 3624,
      "Ġsandwiches": 3625,
      "ubby": 3626,
      "Ġgum": 3627,
      "Ġscoot": 3628,
      "Ġtrack": 3629,
      "Ġclub": 3630,
      "Ġletters": 3631,
      "ĠGeorge": 3632,
      "Ġspeed": 3633,
      "Ġordinary": 3634,
      "Ġcharming": 3635,
      "oe": 3636,
      "uddy": 3637,
      "Ġquestion": 3638,
      "Ġneat": 3639,
      "Ġbandage": 3640,
      "Ġtwirled": 3641,
      "Mary": 3642,
      "aches": 3643,
      "ips": 3644,
      "Ġblueber": 3645,
      "Ġuncle": 3646,
      "Ġcupboard": 3647,
      "Ġgifted": 3648,
      "Ġcereal": 3649,
      "Ġcamp": 3650,
      "enry": 3651,
      "orant": 3652,
      "Ġhunter": 3653,
      "Ġtask": 3654,
      "Ġmole": 3655,
      "Ġpigeon": 3656,
      "Ġanywhere": 3657,
      "Ġrules": 3658,
      "Ġsunflower": 3659,
      "Ġbase": 3660,
      "Ġchasing": 3661,
      "Ġsnuggled": 3662,
      "Re": 3663,
      "Ġnail": 3664,
      "gust": 3665,
      "Ġvi": 3666,
      "Ġcurt": 3667,
      "Ġcompetitive": 3668,
      "Ġgloomy": 3669,
      "Ġdrawer": 3670,
      "Ġsett": 3671,
      "Ġcurtain": 3672,
      "Ġcollar": 3673,
      "Ġuniver": 3674,
      "arlie": 3675,
      "Ġdisgust": 3676,
      "Ġmushroom": 3677,
      "Ġyawn": 3678,
      "Give": 3679,
      "Ġbicy": 3680,
      "Ġsend": 3681,
      "ceed": 3682,
      "Ġignorant": 3683,
      "arian": 3684,
      "Ġdeaf": 3685,
      "Ġattract": 3686,
      "Ġstation": 3687,
      "Ġlizard": 3688,
      "aby": 3689,
      "Ġcarpet": 3690,
      "Ġleash": 3691,
      "cut": 3692,
      "Ġflour": 3693,
      "used": 3694,
      "Ġbounced": 3695,
      "ĠPolly": 3696,
      "Ġstickers": 3697,
      "Ġpasta": 3698,
      "coa": 3699,
      "Ġlively": 3700,
      "Ġsoldier": 3701,
      "Ġchance": 3702,
      "Ġtire": 3703,
      "Ġcompassionate": 3704,
      "aff": 3705,
      "Ġstarts": 3706,
      "Ġalert": 3707,
      "Ġhurry": 3708,
      "Ġled": 3709,
      "Ġpony": 3710,
      "Ġchubby": 3711,
      "Ġcartoon": 3712,
      "ĠJoey": 3713,
      "ses": 3714,
      "stri": 3715,
      "Ġsupport": 3716,
      "ĠSm": 3717,
      "Ġdug": 3718,
      "erable": 3719,
      "Ġpressed": 3720,
      "Ġpackage": 3721,
      "Ġwishes": 3722,
      "cu": 3723,
      "Ġcreatures": 3724,
      "Ġhelpless": 3725,
      "Ġmiserable": 3726,
      "Ġshine": 3727,
      "Ġjet": 3728,
      "ĠEventually": 3729,
      "tter": 3730,
      "urb": 3731,
      "Ġhook": 3732,
      "Ġthief": 3733,
      "Ġstretched": 3734,
      "Ġhipp": 3735,
      "Ġgir": 3736,
      "Ġshaking": 3737,
      "Ġresist": 3738,
      "Ġtap": 3739,
      "ummer": 3740,
      "Ġitself": 3741,
      "Ġhelmet": 3742,
      "ĠBill": 3743,
      "Ġsquash": 3744,
      "ÅĵThat": 3745,
      "iest": 3746,
      "Ġdisturb": 3747,
      "heart": 3748,
      "Ġpants": 3749,
      "Ġgor": 3750,
      "Ġtray": 3751,
      "Ġcocoa": 3752,
      "Ġener": 3753,
      "Ġneedle": 3754,
      "Ġpoem": 3755,
      "Ġimpat": 3756,
      "gie": 3757,
      "Ġshouts": 3758,
      "Ġfearful": 3759,
      "Ġpepper": 3760,
      "Ġcricket": 3761,
      "Ġcase": 3762,
      "ĠSh": 3763,
      "noon": 3764,
      "Ġten": 3765,
      "Ġafternoon": 3766,
      "ĠAre": 3767,
      "Ġsucceed": 3768,
      "Ġrepe": 3769,
      "Ġmill": 3770,
      "Ġbrighter": 3771,
      "Ġallig": 3772,
      "Ġbet": 3773,
      "Ġleop": 3774,
      "If": 3775,
      "Ġenvious": 3776,
      "Ġribb": 3777,
      "Ġtemp": 3778,
      "aurant": 3779,
      "Ġimpatient": 3780,
      "Ġwaff": 3781,
      "orable": 3782,
      "Ġnobody": 3783,
      "Daisy": 3784,
      "Ġdisgusting": 3785,
      "Ġrestaurant": 3786,
      "Ġcomet": 3787,
      "Ġmath": 3788,
      "Ġpracticed": 3789,
      "Ġcrystal": 3790,
      "aked": 3791,
      "Ġrice": 3792,
      "Ġcube": 3793,
      "Ġsteps": 3794,
      "Ġfurther": 3795,
      "Ġotter": 3796,
      "Ġsandbox": 3797,
      "Ġscrew": 3798,
      "Ġtrump": 3799,
      "ĠCl": 3800,
      "Ġsomewhere": 3801,
      "Ġcandle": 3802,
      "Once": 3803,
      "Ġattractive": 3804,
      "ĠWhere": 3805,
      "Ġmonkeys": 3806,
      "Ġpun": 3807,
      "Ġpurse": 3808,
      "olin": 3809,
      "Bye": 3810,
      "Ġvide": 3811,
      "Ġjeep": 3812,
      "Ġbackpack": 3813,
      "Ġhuman": 3814,
      "Ġmeas": 3815,
      "Ġskip": 3816,
      "Ġanyway": 3817,
      "Ġfireman": 3818,
      "Ġadorable": 3819,
      "Ġrestless": 3820,
      "Ġstretch": 3821,
      "icop": 3822,
      "icopter": 3823,
      "Ġmug": 3824,
      "Ġfilthy": 3825,
      "Ġdess": 3826,
      "strich": 3827,
      "Ġfu": 3828,
      "aroo": 3829,
      "angaroo": 3830,
      "Ġdecorate": 3831,
      "Ġbri": 3832,
      "stic": 3833,
      "Ġrespectful": 3834,
      "Ġtroubled": 3835,
      "Ġgiggle": 3836,
      "gn": 3837,
      "Ġattic": 3838,
      "Ġhelicopter": 3839,
      "Ġmuff": 3840,
      "Ġpand": 3841,
      "Ġmelon": 3842,
      "Ġthread": 3843,
      "Ġnowhere": 3844,
      "Ġraven": 3845,
      "Ġstirred": 3846,
      "Ġsoar": 3847,
      "Ġenthusia": 3848,
      "Ġfle": 3849,
      "lcano": 3850,
      "Ġenthusiastic": 3851,
      "Benny": 3852,
      "Ġgrabs": 3853,
      "Ġimpro": 3854,
      "Ġgorilla": 3855,
      "Ġleopard": 3856,
      "Ġfinds": 3857,
      "Ġbarking": 3858,
      "Ġcooked": 3859,
      "Ġexplain": 3860,
      "Ġmagnet": 3861,
      "Ġbicycle": 3862,
      "Ġtrumpet": 3863,
      "Ġkangaroo": 3864,
      "Ġnuts": 3865,
      "ĠLee": 3866,
      "shed": 3867,
      "Ġquar": 3868,
      "Ġhippo": 3869,
      "Ġshoe": 3870,
      "Ġlistening": 3871,
      "Ġcats": 3872,
      "Ġsummer": 3873,
      "Ġdistant": 3874,
      "Ġfive": 3875,
      "Ġbarrel": 3876,
      "irit": 3877,
      "stairs": 3878,
      "ĠWh": 3879,
      "gging": 3880,
      "Ġspell": 3881,
      "Ġreco": 3882,
      "Ġexper": 3883,
      "night": 3884,
      "Ġstared": 3885,
      "Ġadmire": 3886,
      "Ġpipe": 3887,
      "Ġunpack": 3888,
      "Ġvolcano": 3889,
      "Ġants": 3890,
      "Ġjellyfish": 3891,
      "Ġhappier": 3892,
      "Ġsent": 3893,
      "Ġalligator": 3894,
      "Ġfort": 3895,
      "Ġorganize": 3896,
      "Ġharsh": 3897,
      "Ġur": 3898,
      "uct": 3899,
      "ĠEverything": 3900,
      "Ġquite": 3901,
      "come": 3902,
      "Ġsplit": 3903,
      "Ġsecond": 3904,
      "Ġvine": 3905,
      "Ġsweetheart": 3906,
      "Ġpaws": 3907,
      "ĠWould": 3908,
      "Ġradio": 3909,
      "cycle": 3910,
      "Ġriding": 3911,
      "Ġpulls": 3912,
      "Ġgiven": 3913,
      "Ġbatht": 3914,
      "ophone": 3915,
      "Ġseal": 3916,
      "Everyone": 3917,
      "ĠdidnÃ¢": 3918,
      "Ġfirework": 3919,
      "Ġscooter": 3920,
      "Ġbreat": 3921,
      "par": 3922,
      "erop": 3923,
      "eropl": 3924,
      "Ġpal": 3925,
      "Ġbathtub": 3926,
      "Ġmodest": 3927,
      "apa": 3928,
      "Ġhall": 3929,
      "Ġtripped": 3930,
      "Ġaeropl": 3931,
      "Alice": 3932,
      "Ġmessage": 3933,
      "Ġchalk": 3934,
      "Ġlid": 3935,
      "Ġsepar": 3936,
      "Ġbikes": 3937,
      "Ġcows": 3938,
      "Ġsle": 3939,
      "Ġpushing": 3940,
      "Ġspeak": 3941,
      "Ġfrowned": 3942,
      "Ġmama": 3943,
      "Ġostrich": 3944,
      "Ġsort": 3945,
      "Ġsailor": 3946,
      "Ġshield": 3947,
      "Ġsweater": 3948,
      "ĠAlex": 3949,
      "Ġpaid": 3950,
      "Ġeras": 3951,
      "Ġrepair": 3952,
      "ccol": 3953,
      "Ġsock": 3954,
      "Ġbin": 3955,
      "ĠJerry": 3956,
      "ĠBrownie": 3957,
      "Ġdessert": 3958,
      "Ġmeat": 3959,
      "Ġsalt": 3960,
      "year": 3961,
      "llie": 3962,
      "Ġhaircut": 3963,
      "Ġobser": 3964,
      "Ġsize": 3965,
      "ccoli": 3966,
      "aggie": 3967,
      "hood": 3968,
      "eer": 3969,
      "Ġrescue": 3970,
      "Ġspirit": 3971,
      "Ġeither": 3972,
      "ucked": 3973,
      "ĠTweetie": 3974,
      "Ġpilot": 3975,
      "Ġviolin": 3976,
      "Ġholes": 3977,
      "Ġgrapes": 3978,
      "Ġscold": 3979,
      "ĠSmith": 3980,
      "Ġlightning": 3981,
      "Ġtriangle": 3982,
      "Ġbelt": 3983,
      "Ġsheet": 3984,
      "Ġbehave": 3985,
      "Ġbuzz": 3986,
      "Ġroared": 3987,
      "Ġdishes": 3988,
      "Ġpalace": 3989,
      "rec": 3990,
      "Ġcountry": 3991,
      "Ġcostume": 3992,
      "Ġpushes": 3993,
      "Ġelev": 3994,
      "Ġlions": 3995,
      "Ġforgave": 3996,
      "Ġswitch": 3997,
      "Ġstarting": 3998,
      "Ġpapers": 3999,
      "Ġluck": 4000,
      "Ġcush": 4001,
      "Ġchain": 4002,
      "astic": 4003,
      "Ġped": 4004,
      "Ġraft": 4005,
      "Ġsticker": 4006,
      "Ġswinging": 4007,
      "Ġloop": 4008,
      "Ġpeek": 4009,
      "Ġshakes": 4010,
      "Ġrecogn": 4011,
      "Ġbears": 4012,
      "bul": 4013,
      "Ġshade": 4014,
      "Ġtrains": 4015,
      "ÅĵYou": 4016,
      "Ġelevator": 4017,
      "Ġhive": 4018,
      "Ġshopkeeper": 4019,
      "Ġmicr": 4020,
      "Ġchecked": 4021,
      "Ġsaus": 4022,
      "Ġbasketball": 4023,
      "Ġtax": 4024,
      "Ġsilver": 4025,
      "Ġbroccoli": 4026,
      "Ġjokes": 4027,
      "happy": 4028,
      "ipping": 4029,
      "Ġalive": 4030,
      "Ġrod": 4031,
      "Ġoy": 4032,
      "reci": 4033,
      "Ġlip": 4034,
      "icer": 4035,
      "ĠAndy": 4036,
      "Ġprov": 4037,
      "ffe": 4038,
      "Ġlear": 4039,
      "Ġfalling": 4040,
      "Ġlearnt": 4041,
      "Ġwheat": 4042,
      "Ġenergy": 4043,
      "ube": 4044,
      "Ġappreci": 4045,
      "Ġsoftly": 4046,
      "ffee": 4047,
      "aled": 4048,
      "Ġpole": 4049,
      "ĠSophie": 4050,
      "Ġevening": 4051,
      "Ġmicrophone": 4052,
      "Ġwallet": 4053,
      "Ġneighbour": 4054,
      "Ġinse": 4055,
      "Ġpor": 4056,
      "Ġjudge": 4057,
      "Ġcact": 4058,
      "Ġplanet": 4059,
      "iskers": 4060,
      "Ġcolours": 4061,
      "Ġpenguin": 4062,
      "Ġbarks": 4063,
      "Ġvisited": 4064,
      "Ġended": 4065,
      "Ġreind": 4066,
      "iling": 4067,
      "ĠOr": 4068,
      "Ġknot": 4069,
      "Ġclapping": 4070,
      "cast": 4071,
      "inking": 4072,
      "Ġhedge": 4073,
      "Ġzoomed": 4074,
      "Ġrubber": 4075,
      "edy": 4076,
      "Ġoat": 4077,
      "Ġmarched": 4078,
      "Ġboots": 4079,
      "Ġunhappy": 4080,
      "Ġjournal": 4081,
      "Ġeraser": 4082,
      "play": 4083,
      "Ġmild": 4084,
      "Ġol": 4085,
      "ense": 4086,
      "Ġavoc": 4087,
      "Ġshovel": 4088,
      "Ġtaxi": 4089,
      "Ġgro": 4090,
      "Ġsandcast": 4091,
      "Ġpad": 4092,
      "ooped": 4093,
      "Ġlaund": 4094,
      "ophy": 4095,
      "ĠSnow": 4096,
      "Ġtube": 4097,
      "Ġcardboard": 4098,
      "ĠSandy": 4099,
      "imi": 4100,
      "Ġlaundry": 4101,
      "Ġart": 4102,
      "Ġavail": 4103,
      "elery": 4104,
      "Ġbur": 4105,
      "seum": 4106,
      "aulif": 4107,
      "Ġpanda": 4108,
      "aulifl": 4109,
      "Ġreindeer": 4110,
      "ebook": 4111,
      "Ha": 4112,
      "Ġbelongs": 4113,
      "Grandma": 4114,
      "Ġambul": 4115,
      "Ġnotebook": 4116,
      "Ġwool": 4117,
      "ĠRed": 4118,
      "Ġcord": 4119,
      "Ġdrawings": 4120,
      "Ġcactus": 4121,
      "Ġsmells": 4122,
      "Ġsprink": 4123,
      "Ġtrophy": 4124,
      "Ġshelter": 4125,
      "ĠTr": 4126,
      "Ġmule": 4127,
      "ĠPaul": 4128,
      "Ġfeelings": 4129,
      "Ġsteak": 4130,
      "Ġputting": 4131,
      "Ġclimbing": 4132,
      "Ġdisplay": 4133,
      "Ġpainter": 4134,
      "Ġrolling": 4135,
      "Ġunlock": 4136,
      "Ġmuseum": 4137,
      "Ġtricks": 4138,
      "Ġhadn": 4139,
      "Ġbreaks": 4140,
      "ĠBuddy": 4141,
      "Ġmen": 4142,
      "ait": 4143,
      "Ġstrugg": 4144,
      "Ġbananas": 4145,
      "Ġavailable": 4146,
      "nger": 4147,
      "Ġraining": 4148,
      "Ġstrawberry": 4149,
      "Ġdive": 4150,
      "ges": 4151,
      "Ġstom": 4152,
      "ĠBet": 4153,
      "Ġsoil": 4154,
      "Ġflies": 4155,
      "Ġbul": 4156,
      "Daddy": 4157,
      "Ġcoffee": 4158,
      "Ġhoping": 4159,
      "nam": 4160,
      "ĠdonÃ¢": 4161,
      "Ġmarry": 4162,
      "Ġgoal": 4163,
      "Ġpair": 4164,
      "Ġambulance": 4165,
      "reeze": 4166,
      "Ġthanks": 4167,
      "azz": 4168,
      "Ġcaulifl": 4169,
      "Ġleaned": 4170,
      "ĠBunny": 4171,
      "ĠPapa": 4172,
      "Ġlend": 4173,
      "Ġframe": 4174,
      "iron": 4175,
      "Ġshort": 4176,
      "ron": 4177,
      "Ġinsist": 4178,
      "mand": 4179,
      "Ġpolish": 4180,
      "Ġcups": 4181,
      "Ġquarrel": 4182,
      "Ġheads": 4183,
      "Ġtreasures": 4184,
      "Ġprun": 4185,
      "Ġcelery": 4186,
      "Ġskill": 4187,
      "Ġbulb": 4188,
      "Ġfields": 4189,
      "Ġincl": 4190,
      "Ġairport": 4191,
      "hino": 4192,
      "Ġapologized": 4193,
      "Ġonion": 4194,
      "sely": 4195,
      "Ġyach": 4196,
      "Ġink": 4197,
      "Ġfootball": 4198,
      "Ġfolder": 4199,
      "ecause": 4200,
      "eath": 4201,
      "ctory": 4202,
      "Ġdrops": 4203,
      "Ġdiary": 4204,
      "Ġflame": 4205,
      "Ġminute": 4206,
      "Ġaeroplane": 4207,
      "urch": 4208,
      "Ġfilm": 4209,
      "Ġrever": 4210,
      "ĠRo": 4211,
      "Ġimagine": 4212,
      "Ġmedal": 4213,
      "Ġvest": 4214,
      "ĠCharlie": 4215,
      "Ġlawy": 4216,
      "Ġkitty": 4217,
      "Ġgolf": 4218,
      "Ġappl": 4219,
      "Ġfactory": 4220,
      "Ġsym": 4221,
      "Ġshouldn": 4222,
      "ected": 4223,
      "Ġvend": 4224,
      "Ġeagerly": 4225,
      "pe": 4226,
      "Ġswung": 4227,
      "Ġshrimp": 4228,
      "Ġcauliflower": 4229,
      "Ġyogurt": 4230,
      "Ġmagaz": 4231,
      "Ġcomplete": 4232,
      "Ġtub": 4233,
      "Ġpage": 4234,
      "Ġrag": 4235,
      "ween": 4236,
      "Ġyacht": 4237,
      "Ġclosely": 4238,
      "âĤ¬âĢľ": 4239,
      "Ġporch": 4240,
      "nament": 4241,
      "ĠTed": 4242,
      "kelet": 4243,
      "Ġhotel": 4244,
      "Ġbetween": 4245,
      "Ġpoints": 4246,
      "place": 4247,
      "Ġrhino": 4248,
      "Ġornament": 4249,
      "Ġflea": 4250,
      "Ġquit": 4251,
      "Ġdisag": 4252,
      "Ġshouting": 4253,
      "..": 4254,
      "Ġwinter": 4255,
      "Ġstuffed": 4256,
      "ĠHenry": 4257,
      "Ġcheek": 4258,
      "stead": 4259,
      "Ġpit": 4260,
      "ef": 4261,
      "osie": 4262,
      "Ġchirp": 4263,
      "Ġcooler": 4264,
      "render": 4265,
      "Ġsunset": 4266,
      "Ġseeing": 4267,
      "gen": 4268,
      "Ġimagination": 4269,
      "Ġpoint": 4270,
      "izes": 4271,
      "Ġfrogs": 4272,
      "bol": 4273,
      "ĠWhiskers": 4274,
      "Ġinsect": 4275,
      "zzy": 4276,
      "ĠWill": 4277,
      "Ġperfectly": 4278,
      "ĠAnnie": 4279,
      "Ġthrows": 4280,
      "anic": 4281,
      "Ġforgotten": 4282,
      "Ġcounter": 4283,
      "Ġsymbol": 4284,
      "Ġlaser": 4285,
      "Ġherb": 4286,
      "Ġtwink": 4287,
      "affe": 4288,
      "Ġknob": 4289,
      "Ġlives": 4290,
      "chanic": 4291,
      "Ġheaded": 4292,
      "Ġcreated": 4293,
      "Ġfurn": 4294,
      "Ġskelet": 4295,
      "iture": 4296,
      "Ġattention": 4297,
      "aces": 4298,
      "Ġfurniture": 4299,
      "Ġtuna": 4300,
      "quit": 4301,
      "Ġtemple": 4302,
      "ides": 4303,
      "Ġmechanic": 4304,
      "Ġax": 4305,
      "Ġlie": 4306,
      "Ġtrail": 4307,
      "Ġmixer": 4308,
      "ccer": 4309,
      "Ġsir": 4310,
      "Ġphoto": 4311,
      "Ġvendor": 4312,
      "Ġwife": 4313,
      "Ġmotorcycle": 4314,
      "Ġbaking": 4315,
      "Ġstud": 4316,
      "ites": 4317,
      "Ġplayer": 4318,
      "Ġslept": 4319,
      "Ġoffer": 4320,
      "gl": 4321,
      "Ġcoal": 4322,
      "Ġkay": 4323,
      "Ġpoke": 4324,
      "Ġsoccer": 4325,
      "Ġpetals": 4326,
      "Ġtheater": 4327,
      "quito": 4328,
      "aws": 4329,
      "Ġpeach": 4330,
      "Ġargue": 4331,
      "Ġhut": 4332,
      "spap": 4333,
      "Ġpirates": 4334,
      "Ġmos": 4335,
      "Ġlawyer": 4336,
      "ĠBun": 4337,
      "Ġwaving": 4338,
      "Ġswamp": 4339,
      "Ġgiraffe": 4340,
      "Ġnewspap": 4341,
      "Ġskull": 4342,
      "ĠGrace": 4343,
      "right": 4344,
      "Your": 4345,
      "Ġfireplace": 4346,
      "Ġvet": 4347,
      "ories": 4348,
      "Ġweather": 4349,
      "Ġpine": 4350,
      "Inside": 4351,
      "ckey": 4352,
      "Ġhockey": 4353,
      "Ġoil": 4354,
      "Ġig": 4355,
      "Ġcherries": 4356,
      "any": 4357,
      "ĠDanny": 4358,
      "Ġigloo": 4359,
      "orses": 4360,
      "Ġskeleton": 4361,
      "ues": 4362,
      "ĠMaria": 4363,
      "Ġitch": 4364,
      "Ġblowing": 4365,
      "Ġzipper": 4366,
      "Ġwipe": 4367,
      "Ġaxe": 4368,
      "Ġglove": 4369,
      "Ġhorses": 4370,
      "Ġmosquito": 4371,
      "Ġcalls": 4372,
      "Ġgrin": 4373,
      "Ġcushion": 4374,
      "Ġfreez": 4375,
      "Ġvideo": 4376,
      "Ġchurch": 4377,
      "Ġreef": 4378,
      "Ġglowing": 4379,
      "Eventually": 4380,
      "Ġmaze": 4381,
      "Ġgrocer": 4382,
      "Ġbreeze": 4383,
      "Ġwelcomed": 4384,
      "Ġtrave": 4385,
      "Ġcable": 4386,
      "glass": 4387,
      "ceros": 4388,
      "Ġgolden": 4389,
      "Ġshower": 4390,
      "Ġmeeting": 4391,
      "Ġslipper": 4392,
      "ĠJess": 4393,
      "angu": 4394,
      "Ġbouncing": 4395,
      "Ġchickens": 4396,
      "Ġcelebrated": 4397,
      "Ġsneak": 4398,
      "Ġsurrender": 4399,
      "Ġlime": 4400,
      "Ġplastic": 4401,
      "Ġslippery": 4402,
      "unately": 4403,
      "Ġsquirrels": 4404,
      "ĠBaby": 4405,
      "Ġfishing": 4406,
      "Ġtut": 4407,
      "elcome": 4408,
      "Ġpopped": 4409,
      "Ġlangu": 4410,
      "ĠMillie": 4411,
      "Ġsunglass": 4412,
      "Ġsunglasses": 4413,
      "Ġgreedy": 4414,
      "hero": 4415,
      "ney": 4416,
      "was": 4417,
      "Ġseas": 4418,
      "Ġsniffed": 4419,
      "Ġlotion": 4420,
      "Ġkingdom": 4421,
      "Ġpowder": 4422,
      "Ġstreng": 4423,
      "Ġflapped": 4424,
      "Ġcomplain": 4425,
      "mm": 4426,
      "Ġwags": 4427,
      "Ġoyster": 4428,
      "rr": 4429,
      "ĠLilly": 4430,
      "Ġhanging": 4431,
      "Ġfisher": 4432,
      "ĠUn": 4433,
      "Ġparent": 4434,
      "Ġdoors": 4435,
      "Ġrhinoceros": 4436,
      "ĠitÃ¢": 4437,
      "Ġshoulder": 4438,
      "Ġsuperhero": 4439,
      "Ġpist": 4440,
      "Ġrot": 4441,
      "Ġbury": 4442,
      "washer": 4443,
      "rod": 4444,
      "Ġdear": 4445,
      "Ġsub": 4446,
      "Ġyoga": 4447,
      "Ġstaff": 4448,
      "Ġbaseball": 4449,
      "Ġstrength": 4450,
      "Ġfauc": 4451,
      "Ġbattery": 4452,
      "vision": 4453,
      "Ġcabinet": 4454,
      "Ġsurround": 4455,
      "Ġsince": 4456,
      "Ġpistol": 4457,
      "Ġunif": 4458,
      "ĠGod": 4459,
      "Ġinvest": 4460,
      "Ġdishwasher": 4461,
      "ĠHarry": 4462,
      "Ġintrod": 4463,
      "Ġmystery": 4464,
      "Jenny": 4465,
      "chor": 4466,
      "Ġiron": 4467,
      "Ġuniform": 4468,
      "Ġceiling": 4469,
      "ĠIÃ¢": 4470,
      "Ġsque": 4471,
      "Ġinvestig": 4472,
      "rosc": 4473,
      "Ġhopes": 4474,
      "ĠMimi": 4475,
      "Ġmusician": 4476,
      "Ġsticky": 4477,
      "ab": 4478,
      "Ġeaten": 4479,
      "Ġmemories": 4480,
      "Ġfaucet": 4481,
      "inarian": 4482,
      "ĠInstead": 4483,
      "eterinarian": 4484,
      "Ġfought": 4485,
      "te": 4486,
      "Ġkayak": 4487,
      "Ġreve": 4488,
      "Ġvroom": 4489,
      "Ġveterinarian": 4490,
      "ssible": 4491,
      "Ġchess": 4492,
      "Ġtoil": 4493,
      "Ġagree": 4494,
      "roscope": 4495,
      "Ġnovel": 4496,
      "Ġsailing": 4497,
      "Ch": 4498,
      "tress": 4499,
      "men": 4500,
      "una": 4501,
      "Ġmattress": 4502,
      "Ġmistakes": 4503,
      "Ġignored": 4504,
      "Ġnews": 4505,
      "Ġburned": 4506,
      "Ġtelevision": 4507,
      "Ġble": 4508,
      "medi": 4509,
      "Next": 4510,
      "Ġfollows": 4511,
      "Ġcell": 4512,
      "alley": 4513,
      "Ġcob": 4514,
      "Ġquack": 4515,
      "Wait": 4516,
      "Ġshrugged": 4517,
      "Ġjewelry": 4518,
      "mediately": 4519,
      "Ġmicroscope": 4520,
      "Ġtoilet": 4521,
      "Ġmop": 4522,
      "Ġsprayed": 4523,
      "ison": 4524,
      "tain": 4525,
      "Ġblankets": 4526,
      "Ġhappens": 4527,
      "Ġwriting": 4528,
      "Ġdiscu": 4529,
      "Ġweigh": 4530,
      "Ġdancer": 4531,
      "Ġnapkin": 4532,
      "Ġquietly": 4533,
      "Ġanchor": 4534,
      "Ġclassroom": 4535,
      "aud": 4536,
      "Ġmoves": 4537,
      "Ġradish": 4538,
      "Ġavocado": 4539,
      "Ġinvestigate": 4540,
      "Ġsuff": 4541,
      "Ġvalley": 4542,
      "Ġregret": 4543,
      "Ġprevent": 4544,
      "Ġcollected": 4545,
      "Together": 4546,
      "Ġagre": 4547,
      "Ġworth": 4548,
      "web": 4549,
      "Ġalarm": 4550,
      "Thanks": 4551,
      "Ġthrowing": 4552,
      "Ġbother": 4553,
      "Ġhar": 4554,
      "Ġmagazine": 4555,
      "Ġscolded": 4556,
      "ives": 4557,
      "ler": 4558,
      "inked": 4559,
      "Ġcared": 4560,
      "chie": 4561,
      "ĠRosie": 4562,
      "Ġchoice": 4563,
      "reek": 4564,
      "Ġtear": 4565,
      "house": 4566,
      "chair": 4567,
      "Ġcreek": 4568,
      "Ġskirt": 4569,
      "Ġoak": 4570,
      "Ġcane": 4571,
      "Ġbeef": 4572,
      "Ġfisherman": 4573,
      "ÅĵItÃ¢": 4574,
      "Ġattach": 4575,
      "Ġpassport": 4576,
      "erc": 4577,
      "Little": 4578,
      "Ġgym": 4579,
      "Ġcastles": 4580,
      "ĠTony": 4581,
      "Ġcobweb": 4582,
      "Ġtug": 4583,
      "Ġapart": 4584,
      "Ġyield": 4585,
      "ĠKate": 4586,
      "Ġapplaud": 4587,
      "Ġtutor": 4588,
      "ĠNext": 4589,
      "Ġward": 4590,
      "Ġpresents": 4591,
      "Ġaccepted": 4592,
      "anges": 4593,
      "Ġseparate": 4594,
      "Ġsizes": 4595,
      "Emma": 4596,
      "Ġnewspaper": 4597,
      "Ġwardrobe": 4598,
      "Ġlicks": 4599,
      "Ġmatches": 4600,
      "Ġpuddles": 4601,
      "Ġcrib": 4602,
      "Ġarmchair": 4603,
      "Qu": 4604,
      "Ġrise": 4605,
      "Ġstraight": 4606,
      "Ġentered": 4607,
      "Ġbookcase": 4608,
      "Ġtrusted": 4609,
      "Ġpra": 4610,
      "imney": 4611,
      "Ġdelay": 4612,
      "Ġtucked": 4613,
      "Ġcaring": 4614,
      "Ġcandles": 4615,
      "Ġgrill": 4616,
      "Ġwhisper": 4617,
      "ety": 4618,
      "Because": 4619,
      "Ġfog": 4620,
      "Ġkeeping": 4621,
      "Ġveil": 4622,
      "Ġpur": 4623,
      "Ġrooms": 4624,
      "rs": 4625,
      "Ġperfu": 4626,
      "Ġkisses": 4627,
      "Ġcrow": 4628,
      "Ġimprove": 4629,
      "ĠSu": 4630,
      "Ġchimney": 4631,
      "Ġcoats": 4632,
      "Ġexerc": 4633,
      "Ġclaws": 4634,
      "Ġdressed": 4635,
      "ĠSee": 4636,
      "Ġlawn": 4637,
      "ampoo": 4638,
      "Ann": 4639,
      "Ġraz": 4640,
      "Ġboot": 4641,
      "Ġblood": 4642,
      "Ġfloat": 4643,
      "Ġfreezer": 4644,
      "Ġdisappear": 4645,
      "Ġpastry": 4646,
      "iday": 4647,
      "Ġworms": 4648,
      "Ġpuzzles": 4649,
      "ah": 4650,
      "hic": 4651,
      "sit": 4652,
      "ĠHelp": 4653,
      "Ġletting": 4654,
      "eve": 4655,
      "Ġstro": 4656,
      "Ġvehic": 4657,
      "ring": 4658,
      "omes": 4659,
      "Ġstable": 4660,
      "ggy": 4661,
      "Ġamazement": 4662,
      "iction": 4663,
      "Ġsplashing": 4664,
      "Ġblinked": 4665,
      "ival": 4666,
      "Ġchairs": 4667,
      "ĠMiss": 4668,
      "Ġperfume": 4669,
      "Ġblouse": 4670,
      "Ġsteam": 4671,
      "ictionary": 4672,
      "Ġroot": 4673,
      "Ġpinch": 4674,
      "mend": 4675,
      "Ġfile": 4676,
      "Ġshampoo": 4677,
      "ĠAb": 4678,
      "ĠJames": 4679,
      "Ġappro": 4680,
      "Ġaut": 4681,
      "Ġwarmth": 4682,
      "Ġinf": 4683,
      "Ġmakeup": 4684,
      "Ġopera": 4685,
      "Ġdemand": 4686,
      "ived": 4687,
      "Ġdictionary": 4688,
      "Ġsqueeze": 4689,
      "Ġsigh": 4690,
      "Ġcrawling": 4691,
      "Ġrake": 4692,
      "Ġeasily": 4693,
      "Ġlanguage": 4694,
      "Ġwaste": 4695,
      "ĠRu": 4696,
      "Ġsqueezed": 4697,
      "raged": 4698,
      "Ġmint": 4699,
      "Ġwigg": 4700,
      "Ġcrossed": 4701,
      "Ġmustache": 4702,
      "ction": 4703,
      "Ġrazor": 4704,
      "Ġserve": 4705,
      "ommend": 4706,
      "Ġcub": 4707,
      "ĠJul": 4708,
      "Ġrecommend": 4709,
      "Ġincre": 4710,
      "Ġribbon": 4711,
      "ĊĠ": 4712,
      "Ġpear": 4713,
      "Did": 4714,
      "ores": 4715,
      "Ġhol": 4716,
      "Ġrelaxed": 4717,
      "âĤ¬.": 4718,
      "Ġticket": 4719,
      "Ġsnap": 4720,
      "Ġholiday": 4721,
      "ĠMaggie": 4722,
      "Ġwandered": 4723,
      "uckily": 4724,
      "Ġhearts": 4725,
      "Ġmissile": 4726,
      "cage": 4727,
      "Ġweep": 4728,
      "Ġspear": 4729,
      "Ġteleph": 4730,
      "Ġringing": 4731,
      "Ġblueberries": 4732,
      "Ġinstr": 4733,
      "Ġhurting": 4734,
      "Ġminer": 4735,
      "Ġrail": 4736,
      "Ġbirdcage": 4737,
      "Ġpoked": 4738,
      "ĠRe": 4739,
      "Is": 4740,
      "Ġbelow": 4741,
      "Ġtelephone": 4742,
      "Ġrequ": 4743,
      "lend": 4744,
      "fortunately": 4745,
      "Ġcrash": 4746,
      "asis": 4747,
      "Ġfest": 4748,
      "Ġgear": 4749,
      "Ġhelper": 4750,
      "Ġsurprises": 4751,
      "Ġfollowing": 4752,
      "Ġplanes": 4753,
      "Ġsubway": 4754,
      "Ġgrowled": 4755,
      "Ġjunk": 4756,
      "Ġmuffin": 4757,
      "bbie": 4758,
      "Ġkneel": 4759,
      "ĠWho": 4760,
      "ib": 4761,
      "cus": 4762,
      "Ġquiz": 4763,
      "Ġtornado": 4764,
      "Ġyucky": 4765,
      "Ġsneeze": 4766,
      "Ġideas": 4767,
      "Ġrefre": 4768,
      "Ġisn": 4769,
      "ising": 4770,
      "Ġtrade": 4771,
      "Ġmarried": 4772,
      "ups": 4773,
      "Ġlumber": 4774,
      "Ġdire": 4775,
      "Ġharb": 4776,
      "Ġreaches": 4777,
      "Ġsandcastle": 4778,
      "Ġbegged": 4779,
      "inky": 4780,
      "Ġstrawberries": 4781,
      "Ġmyself": 4782,
      "Ġbill": 4783,
      "Ġoasis": 4784,
      "Ġflutter": 4785,
      "amber": 4786,
      "Ġshrink": 4787,
      "Ġlaught": 4788,
      "Ġberry": 4789,
      "Ġburied": 4790,
      "icing": 4791,
      "Ġbravely": 4792,
      "ĠClara": 4793,
      "Ġfallen": 4794,
      "ĠTrue": 4795,
      "Ġenter": 4796,
      "Ġplates": 4797,
      "Ġlaughter": 4798,
      "Ġbookshe": 4799,
      "Ġimmediately": 4800,
      "Ġcalend": 4801,
      "Ġbumped": 4802,
      "Ġbeamed": 4803,
      "omeday": 4804,
      "achel": 4805,
      "omob": 4806,
      "Ġraise": 4807,
      "Ġrequest": 4808,
      "Yuck": 4809,
      "Ġweap": 4810,
      "Ġexperience": 4811,
      "Ġlic": 4812,
      "Ġadmir": 4813,
      "Ġrabbits": 4814,
      "Ġinvite": 4815,
      "Ok": 4816,
      "ops": 4817,
      "Ġtong": 4818,
      "anny": 4819,
      "Ġalright": 4820,
      "aped": 4821,
      "Ġmass": 4822,
      "Today": 4823,
      "'ve": 4824,
      "Ġunderstanding": 4825,
      "Ġcalendar": 4826,
      "Ġmoments": 4827,
      "atie": 4828,
      "Ġskills": 4829,
      "Ġautomob": 4830,
      "Ġjail": 4831,
      "Ġreverse": 4832,
      "Ġthumb": 4833,
      "Ġbleed": 4834,
      "htray": 4835,
      "Ġcliff": 4836,
      "Ġharbor": 4837,
      "Ġbookshelf": 4838,
      "Ġashtray": 4839,
      "sters": 4840,
      "Ġknown": 4841,
      "igail": 4842,
      "Will": 4843,
      "oral": 4844,
      "Ġvac": 4845,
      "Ġfuel": 4846,
      "Ġpages": 4847,
      "ĠTina": 4848,
      "Ġignore": 4849,
      "ari": 4850,
      "Ġitem": 4851,
      "Ġsupply": 4852,
      "Ġbathe": 4853,
      "ission": 4854,
      "Ġdried": 4855,
      "Ġsnapped": 4856,
      "Ġapron": 4857,
      "riger": 4858,
      "Ġsafety": 4859,
      "rigerator": 4860,
      "lier": 4861,
      "Welcome": 4862,
      "Ġpermission": 4863,
      "Ġhardly": 4864,
      "Ġrefrigerator": 4865,
      "Ġfestival": 4866,
      "With": 4867,
      "Ġspots": 4868,
      "ĠSnowy": 4869,
      "Ġcaptain": 4870,
      "ucture": 4871,
      "Ġremove": 4872,
      "Ġsomeday": 4873,
      "Ġstructure": 4874,
      "Ġsparkling": 4875,
      "Ġsocks": 4876,
      "Ġcuddled": 4877,
      "Ġsaving": 4878,
      "asp": 4879,
      "Ġbalan": 4880,
      "Ġblackboard": 4881,
      "'.": 4882,
      "Ġwhip": 4883,
      "cakes": 4884,
      "Ġchamber": 4885,
      "ĠFo": 4886,
      "Ġwine": 4887,
      "Ġdestination": 4888,
      "Ġtoes": 4889,
      "Ġspending": 4890,
      "Ġlemonade": 4891,
      "Ġres": 4892,
      "Ġspade": 4893,
      "Ġdresses": 4894,
      "Ġhits": 4895,
      "ÅĵNo": 4896,
      "Ġhanger": 4897,
      "Ġinsisted": 4898,
      "Ġteaching": 4899,
      "Ġbreathe": 4900,
      "Ġscattered": 4901,
      "ĠFreddy": 4902,
      "ents": 4903,
      "ĠKing": 4904,
      "Ġwaffle": 4905,
      "ĠIts": 4906,
      "Ġsettled": 4907,
      "Ġdestroyed": 4908,
      "Ġairpl": 4909,
      "Ġlabel": 4910,
      "Ġbuzzing": 4911,
      "Ġpraised": 4912,
      "Ġjewels": 4913,
      "Ġprepare": 4914,
      "Ġyawned": 4915,
      "Ġlicense": 4916,
      "Ġtaller": 4917,
      "Ġmodel": 4918,
      "Ġfiref": 4919,
      "Ġport": 4920,
      "Ġscooped": 4921,
      "Ġdifferen": 4922,
      "Ġreceived": 4923,
      "Ġlily": 4924,
      "Ġrow": 4925,
      "Ġpride": 4926,
      "Ġprop": 4927,
      "Ġbuckle": 4928,
      "Ġearlier": 4929,
      "Ġtour": 4930,
      "ĠHave": 4931,
      "Ġhomes": 4932,
      "Ġbeans": 4933,
      "ium": 4934,
      "Ġvanished": 4935,
      "Ġglo": 4936,
      "reat": 4937,
      "Ġpatiently": 4938,
      "ctly": 4939,
      "Ġremain": 4940,
      "Ġbathrobe": 4941,
      "Ġappreciate": 4942,
      "Ġchirping": 4943,
      "Ġachie": 4944,
      "Ġdeeper": 4945,
      "Ġpulling": 4946,
      "Ġnone": 4947,
      "Ġsausage": 4948,
      "antly": 4949,
      "Ġsits": 4950,
      "Ġdare": 4951,
      "anna": 4952,
      "Ġdecorations": 4953,
      "Ġdrain": 4954,
      "Ġhate": 4955,
      "Ġshed": 4956,
      "ĠEach": 4957,
      "Ġrhy": 4958,
      "Ġpunish": 4959,
      "Ġwashing": 4960,
      "ĠPeople": 4961,
      "Ġfastest": 4962,
      "Ġsimp": 4963,
      "Ġsparkles": 4964,
      "Ġbelieved": 4965,
      "Ġtore": 4966,
      "Ġencouraged": 4967,
      "ĠBefore": 4968,
      "Ġreplace": 4969,
      "Ġsuffer": 4970,
      "xture": 4971,
      "Ġsparkle": 4972,
      "Ġbrain": 4973,
      "atch": 4974,
      "nies": 4975,
      "ĠIs": 4976,
      "Ġtease": 4977,
      "Ġclimbs": 4978,
      "sing": 4979,
      "sity": 4980,
      "Ġinvit": 4981,
      "Ġtongue": 4982,
      "Ġbang": 4983,
      "Ġpalm": 4984,
      "Ġhills": 4985,
      "ĠCo": 4986,
      "Sammy": 4987,
      "Ġscratch": 4988,
      "All": 4989,
      "Ġmention": 4990,
      "Ġguy": 4991,
      "ĠMay": 4992,
      "Ġfloated": 4993,
      "Ġhers": 4994,
      "Ġautomobile": 4995,
      "Ġplays": 4996,
      "Ġrespons": 4997,
      "bey": 4998,
      "Ġweeks": 4999,
      "Ġflav": 5000,
      "Ġcrunch": 5001,
      "Ġdigg": 5002,
      "Ġsty": 5003,
      "Ġinfant": 5004,
      "Ġheat": 5005,
      "Ġoranges": 5006,
      "osed": 5007,
      "Ġpanic": 5008,
      "Ġgifts": 5009,
      "Ġscore": 5010,
      "izard": 5011,
      "Ġsolved": 5012,
      "Ġdigging": 5013,
      "Ġworse": 5014,
      "Ġshot": 5015,
      "Ġupstairs": 5016,
      "Ġstad": 5017,
      "These": 5018,
      "Ġvacation": 5019,
      "Ġstadium": 5020,
      "Ġmeowed": 5021,
      "Ġstruggling": 5022,
      "Ġmitten": 5023,
      "Ġequ": 5024,
      "thm": 5025,
      "Ġtwisted": 5026,
      "Ġshooting": 5027,
      "Ġbak": 5028,
      "Ġchores": 5029,
      "ĠBuzz": 5030,
      "ĠV": 5031,
      "Ġexamine": 5032,
      "ĠOllie": 5033,
      "Ġfloating": 5034,
      "Ġsew": 5035,
      "Ġsneezed": 5036,
      "Ġpoison": 5037,
      "Ġhesit": 5038,
      "osity": 5039,
      "Ġthrilled": 5040,
      "fied": 5041,
      "allen": 5042,
      "Ġuniverse": 5043,
      "Mandy": 5044,
      "rm": 5045,
      "Ġawe": 5046,
      "Ġspaces": 5047,
      "Ġbites": 5048,
      "Ġvehicle": 5049,
      "Ġsport": 5050,
      "Ġcherry": 5051,
      "Fl": 5052,
      "Ġsetting": 5053,
      "Ġprovide": 5054,
      "Ġwarning": 5055,
      "Ġparts": 5056,
      "Ġmall": 5057,
      "Ġchallen": 5058,
      "Ġnation": 5059,
      "Ġgrey": 5060,
      "ĠGood": 5061,
      "Mmm": 5062,
      "Ġrestore": 5063,
      "do": 5064,
      "xy": 5065,
      "Ġmeasured": 5066,
      "Ġtherm": 5067,
      "Ġgrinned": 5068,
      "Ġapproached": 5069,
      "Ġmassage": 5070,
      "ero": 5071,
      "ude": 5072,
      "ĠEveryday": 5073,
      "Emily": 5074,
      "Ġranch": 5075,
      "Ġrhythm": 5076,
      "Ġcollection": 5077,
      "Ġrepeat": 5078,
      "Ġjazz": 5079,
      "Ġurge": 5080,
      "Ġweapon": 5081,
      "Ġevent": 5082,
      "Ġfut": 5083,
      "Ġbrings": 5084,
      "Ġwizard": 5085,
      "Ġremained": 5086,
      "Ġoper": 5087,
      "Ġneighborhood": 5088,
      "ls": 5089,
      "Ġfuture": 5090,
      "Ġstomach": 5091,
      "ging": 5092,
      "umble": 5093,
      "Ġthermomet": 5094,
      "Ġdiscuss": 5095,
      "Ġlugg": 5096,
      "Ġbillboard": 5097,
      "Ġmemory": 5098,
      "emember": 5099,
      "Ġelephants": 5100,
      "Sh": 5101,
      "Ġdifference": 5102,
      "Ġluggage": 5103,
      "Ġmailman": 5104,
      "Ġcartoons": 5105,
      "Ġactually": 5106,
      "!\",": 5107,
      "Ġuniversity": 5108,
      "Ġseats": 5109,
      "Ġleak": 5110,
      "Ġflood": 5111,
      "Ġglowed": 5112,
      "avid": 5113,
      "Ġsupposed": 5114,
      "Not": 5115,
      "Would": 5116,
      "Ġgrape": 5117,
      "Ġfixing": 5118,
      "Ġthermometer": 5119,
      "allow": 5120,
      "Ġmarbles": 5121,
      "aspoon": 5122,
      "Ġpoppy": 5123,
      "!'": 5124,
      "Ġsprinkles": 5125,
      "Ġinclud": 5126,
      "ĠBetsy": 5127,
      "Ġbricks": 5128,
      "Ġduring": 5129,
      "Ġteaspoon": 5130,
      "Ġpaints": 5131,
      "Ġsigns": 5132,
      "Ġrush": 5133,
      "Ġairplane": 5134,
      "ĠLiz": 5135,
      "Ġconf": 5136,
      "Ġemer": 5137,
      "Ġmelted": 5138,
      "Ready": 5139,
      "Ġdiscovery": 5140,
      "Ġreceive": 5141,
      "Ġpotatoes": 5142,
      "ĠJoy": 5143,
      "Ġsurrounded": 5144,
      "ĠLater": 5145,
      "Ġbrus": 5146,
      "Ġmister": 5147,
      "Ġcurled": 5148,
      "Ġhurric": 5149,
      "Ġwatches": 5150,
      "Ġsip": 5151,
      "Ġwisdom": 5152,
      "Ġsore": 5153,
      "Ġgirls": 5154,
      "Ġzipped": 5155,
      "Lisa": 5156,
      "rise": 5157,
      "vet": 5158,
      "Ġpillows": 5159,
      "Ġtomatoes": 5160,
      "Peter": 5161,
      "Ġrust": 5162,
      "Ġlaid": 5163,
      "Ġdaisy": 5164,
      "Ġdecision": 5165,
      "Ġproblems": 5166,
      "Ġfasc": 5167,
      "ĠRachel": 5168,
      "Ġpaused": 5169,
      "Ġgust": 5170,
      "Ġstrang": 5171,
      "Ġchewed": 5172,
      "ishing": 5173,
      "Ġtracks": 5174,
      "Ġweight": 5175,
      "Ġsliding": 5176,
      "Ġtide": 5177,
      "Ġcontain": 5178,
      "ĠSomeone": 5179,
      "Ġpatterns": 5180,
      "Ġsunrise": 5181,
      "Ġgain": 5182,
      "Ġbeat": 5183,
      "Ġpossible": 5184,
      "Ġgrocery": 5185,
      "Ġinvitation": 5186,
      "Ġunite": 5187,
      "Ġsings": 5188,
      "Ġgaz": 5189,
      "Ġwherever": 5190,
      "Ġslice": 5191,
      "Ġadmiring": 5192,
      "uing": 5193,
      "ÅĵIÃ¢": 5194,
      "Ġsunlight": 5195,
      "Ġcrashed": 5196,
      "ÅĵThatÃ¢": 5197,
      "walk": 5198,
      "Ġmanage": 5199,
      "ĠPoppy": 5200,
      "Ġtwigs": 5201,
      "oved": 5202,
      "iers": 5203,
      "bbles": 5204,
      "eed": 5205,
      "Ġhurricane": 5206,
      "Ġordered": 5207,
      "Ġexercise": 5208,
      "Ġspaceship": 5209,
      "Ġspill": 5210,
      "Ġours": 5211,
      "bers": 5212,
      "Ġwatered": 5213,
      "Ġwre": 5214,
      "Ġcakes": 5215,
      "ĠMe": 5216,
      "Ġracing": 5217,
      "Ġmarching": 5218,
      "Ġlick": 5219,
      "Ġbeg": 5220,
      "Ġkindly": 5221,
      "Ex": 5222,
      "cious": 5223,
      "ĠLuna": 5224,
      "Ġwhistling": 5225,
      "Ġlets": 5226,
      "Ġobserve": 5227,
      "ĠNut": 5228,
      "Ġgloves": 5229,
      "Ġspoons": 5230,
      "Ġspit": 5231,
      "Ġscur": 5232,
      "Ġpupp": 5233,
      "Ġcollecting": 5234,
      "ĠSharing": 5235,
      "ĠCat": 5236,
      "Ġdrinks": 5237,
      "ities": 5238,
      "Ġoperation": 5239,
      "fy": 5240,
      "Ġscratched": 5241,
      "ases": 5242,
      "Ġpetted": 5243,
      "Ġsidewalk": 5244,
      "Ġchir": 5245,
      "Ġglitter": 5246,
      "Ġburning": 5247,
      "Ġfascin": 5248,
      "Ġeff": 5249,
      "Ġraised": 5250,
      "zag": 5251,
      "Ġlands": 5252,
      "Ġx": 5253,
      "Ġchirped": 5254,
      "Ġjogging": 5255,
      "Ġcontinue": 5256,
      "Ġsatis": 5257,
      "unday": 5258,
      "Ġtoe": 5259,
      "Ġpeanuts": 5260,
      "Ġstrangers": 5261,
      "Ġbes": 5262,
      "ĠPenny": 5263,
      "Ġpigs": 5264,
      "Ġfed": 5265,
      "ĠSteve": 5266,
      "Ġfet": 5267,
      "Ġfolded": 5268,
      "Ġescaped": 5269,
      "Ġdoggy": 5270,
      "ĠSunday": 5271,
      "ipment": 5272,
      "hest": 5273,
      "Le": 5274,
      "Before": 5275,
      "Ġsoldiers": 5276,
      "Ġequipment": 5277,
      "Ġworks": 5278,
      "Ġgotten": 5279,
      "ĠZoe": 5280,
      "Mark": 5281,
      "Ġofficer": 5282,
      "Ġearthqu": 5283,
      "Ouch": 5284,
      "mother": 5285,
      "Ġattached": 5286,
      "Ġcrunchy": 5287,
      "Jake": 5288,
      "Ġcopper": 5289,
      "ĠFro": 5290,
      "Ġscreams": 5291,
      "Ġmountains": 5292,
      "Yum": 5293,
      "ddy": 5294,
      "ĠSad": 5295,
      "igzag": 5296,
      "Ġwhistled": 5297,
      "Ġonwards": 5298,
      "loe": 5299,
      "ĠMilly": 5300,
      "Ġappear": 5301,
      "Ġcomfy": 5302,
      "Ġnavy": 5303,
      "Ġpeered": 5304,
      "Ġclearing": 5305,
      "Ġbuildings": 5306,
      "Jen": 5307,
      "Ġbeside": 5308,
      "ĠSpike": 5309,
      "ÅĵThank": 5310,
      "ĠRuby": 5311,
      "Ġwarn": 5312,
      "Ġsafari": 5313,
      "Ġhappiest": 5314,
      "Ġimage": 5315,
      "Ġtalent": 5316,
      "ĠAbigail": 5317,
      "Ġrefreshed": 5318,
      "ecture": 5319,
      "ĠLetÃ¢": 5320,
      "joyed": 5321,
      "Ġremem": 5322,
      "Ġhurried": 5323,
      "Ġhated": 5324,
      "\",": 5325,
      "Ġmeasuring": 5326,
      "Ġremembers": 5327,
      "Ġoverjoyed": 5328,
      "Ġolive": 5329,
      "Ġnetwork": 5330,
      "Ġselling": 5331,
      "ĠNot": 5332,
      "Ġsecrets": 5333,
      "Ġprice": 5334,
      "Ġskipping": 5335,
      "Ġwonders": 5336,
      "Ġplanted": 5337,
      "Really": 5338,
      "Ġlecture": 5339,
      "Ġbeds": 5340,
      "Ġmenu": 5341,
      "seek": 5342,
      "Ġswims": 5343,
      "ĠChirp": 5344,
      "Ġbowed": 5345,
      "aded": 5346,
      "Ġturning": 5347,
      "amie": 5348,
      "bbled": 5349,
      "Ġstrip": 5350,
      "Ġpies": 5351,
      "Ġeagle": 5352,
      "amb": 5353,
      "Ġwaits": 5354,
      "Ġprecious": 5355,
      "Ġtremb": 5356,
      "Ġbye": 5357,
      "Ġbrick": 5358,
      "Ġpitch": 5359,
      "Ġlips": 5360,
      "Ġbones": 5361,
      "Ġobey": 5362,
      "Ġbrand": 5363,
      "Ġcompany": 5364,
      "Ġdinosaurs": 5365,
      "Ġdisagreed": 5366,
      "Ġdrinking": 5367,
      "Ġbrid": 5368,
      "Ġflap": 5369,
      "ÅĵWe": 5370,
      "Ġwooden": 5371,
      "Moral": 5372,
      "Ġslip": 5373,
      "Ġweren": 5374,
      "Ġprune": 5375,
      "Ġsucceeded": 5376,
      "ĠRemy": 5377,
      "Ġeffort": 5378,
      "Ġprepared": 5379,
      "Ġrecognized": 5380,
      "Ġpets": 5381,
      "Ġserved": 5382,
      "Ġshadows": 5383,
      "Ġmineral": 5384,
      "omas": 5385,
      "Ġkeeper": 5386,
      "Ġfireworks": 5387,
      "Ġcuddle": 5388,
      "ffic": 5389,
      "Ġcrept": 5390,
      "Ġreminder": 5391,
      "Ġhist": 5392,
      "Ġmouths": 5393,
      "Ġallow": 5394,
      "ĠKatie": 5395,
      "Ġcomforted": 5396,
      "son": 5397,
      "Ġchat": 5398,
      "Ġexa": 5399,
      "nie": 5400,
      "ĠNutty": 5401,
      "Ġwid": 5402,
      "Ġbridges": 5403,
      "Ġprayed": 5404,
      "Ġblueberry": 5405,
      "Ġrevealed": 5406,
      "Ġsimple": 5407,
      "Ġeveryday": 5408,
      "Ġvict": 5409,
      "Ġprinter": 5410,
      "Ġhistory": 5411,
      "Ġmeow": 5412,
      "Ġpedal": 5413,
      "Ġearthquake": 5414,
      "Ġeasier": 5415,
      "Ġtraffic": 5416,
      "Ġcal": 5417,
      "Ġrang": 5418,
      "mare": 5419,
      "Ġoats": 5420,
      "Ġaccom": 5421,
      "cc": 5422,
      "ĠSunny": 5423,
      "Ġrested": 5424,
      "Ġcutting": 5425,
      "iggy": 5426,
      "Ġstyle": 5427,
      "Ġanytime": 5428,
      "Ġlandsc": 5429,
      "Ġtrapped": 5430,
      "Ġmuddy": 5431,
      "Ġrained": 5432,
      "Ġpadd": 5433,
      "Ġvillag": 5434,
      "ĠChr": 5435,
      "Ġcatching": 5436,
      "Ġtip": 5437,
      "Ġwaist": 5438,
      "Ġacorns": 5439,
      "Ġbleeding": 5440,
      "Ġwhatever": 5441,
      "Ġvoices": 5442,
      "Ġzigzag": 5443,
      "Ġapologize": 5444,
      "Ġchef": 5445,
      "ĠFrank": 5446,
      "Ġstripes": 5447,
      "Ġsteel": 5448,
      "Ġwanting": 5449,
      "Ġnightmare": 5450,
      "Ġsettle": 5451,
      "Ġsoared": 5452,
      "Ġowned": 5453,
      "Ġcircus": 5454,
      "Ġwaffles": 5455,
      "Ġaccompl": 5456,
      "Ġsix": 5457,
      "Ġcreation": 5458,
      "Ġfirefight": 5459,
      "Ġbun": 5460,
      "Ġscoop": 5461,
      "Ġdisturbed": 5462,
      "Ġmonsters": 5463,
      "Ġsnowball": 5464,
      "Luckily": 5465,
      "Ġfash": 5466,
      "Somet": 5467,
      "ĠRa": 5468,
      "ĠSomething": 5469,
      "mble": 5470,
      "Ġgained": 5471,
      "Ġdoctors": 5472,
      "Ġperched": 5473,
      "Ġguessed": 5474,
      "ĠPr": 5475,
      "Ġfreeze": 5476,
      "Ġbreaking": 5477,
      "Ġtastes": 5478,
      "Ġanswers": 5479,
      "Ġresponsible": 5480,
      "First": 5481,
      "Ġshopping": 5482,
      "Ġcostumes": 5483,
      "Ġagreement": 5484,
      "ĠJe": 5485,
      "xygen": 5486,
      "Ġbeneath": 5487,
      "Ġlandscape": 5488,
      "Ġpracticing": 5489,
      "Ġpupil": 5490,
      "ien": 5491,
      "Ġolives": 5492,
      "Ġleather": 5493,
      "Ġvisiting": 5494,
      "ishes": 5495,
      "ĠMat": 5496,
      "Ġdrag": 5497,
      "Ġcuriosity": 5498,
      "izing": 5499,
      "Ġwreck": 5500,
      "ĠTw": 5501,
      "Ġvillagers": 5502,
      "ĠOw": 5503,
      "Ġoutdo": 5504,
      "neath": 5505,
      "ÅĵCan": 5506,
      "Ġbringing": 5507,
      "terday": 5508,
      "Ġmice": 5509,
      "Ġcontro": 5510,
      "Ġsoak": 5511,
      "ĠJan": 5512,
      "Ġbrushed": 5513,
      "Ġitems": 5514,
      "laire": 5515,
      "enty": 5516,
      "Ġtremble": 5517,
      "Ġexactly": 5518,
      "Ġvel": 5519,
      "Ġfashion": 5520,
      "Ġdownstairs": 5521,
      "Ġladyb": 5522,
      "Ro": 5523,
      "Ġeats": 5524,
      "Ġstealing": 5525,
      "Ġarea": 5526,
      "Susie": 5527,
      "Ġrele": 5528,
      "Ġsadness": 5529,
      "ulu": 5530,
      "Ġstruggled": 5531,
      "Or": 5532,
      "Ġcaut": 5533,
      "Ġvelvet": 5534,
      "Ġtwirling": 5535,
      "Tweet": 5536,
      "Ġripped": 5537,
      "ĠDavid": 5538,
      "Ġactiv": 5539,
      "Ġargued": 5540,
      "ding": 5541,
      "ĠThese": 5542,
      "ley": 5543,
      "ĠSpark": 5544,
      "Ġsi": 5545,
      "Ġgrandmother": 5546,
      "ĠQu": 5547,
      "Ġfamil": 5548,
      "Ġmission": 5549,
      "Ġdied": 5550,
      "oming": 5551,
      "Ġfascinated": 5552,
      "Ġwrites": 5553,
      "Ġunlocked": 5554,
      "annah": 5555,
      "die": 5556,
      "Ġencourage": 5557,
      "Ġrecognize": 5558,
      "ik": 5559,
      "Ġknelt": 5560,
      "Ġinstruct": 5561,
      "isten": 5562,
      "Ġsisters": 5563,
      ".'": 5564,
      "Ġvictory": 5565,
      "Ġweighed": 5566,
      "Ġunderground": 5567,
      "Ġexamined": 5568,
      "Ġkeys": 5569,
      "Ġpermit": 5570,
      "icorn": 5571,
      "Ġunicorn": 5572,
      "ĠOl": 5573,
      "indy": 5574,
      "Ġnicer": 5575,
      "Ġsoaring": 5576,
      "Ġexit": 5577,
      "Ġzero": 5578,
      "ĠChirpy": 5579,
      "Ġplanned": 5580,
      "Ġbegin": 5581,
      "usan": 5582,
      "ux": 5583,
      "Ġtickets": 5584,
      "Ġwagging": 5585,
      "Ġlemons": 5586,
      "Ġjogged": 5587,
      "Ġrealize": 5588,
      "Ġtugged": 5589,
      "Ġpearl": 5590,
      "Ġslapped": 5591,
      "Ġrides": 5592,
      "Ġloaded": 5593,
      "Ġwondering": 5594,
      "Ġsupplies": 5595,
      "Ġbare": 5596,
      "Ġsitu": 5597,
      "Ġpinched": 5598,
      "Ġshivering": 5599,
      "Un": 5600,
      "ĠHowever": 5601,
      "Ġdecorated": 5602,
      "Ġstudied": 5603,
      "Ġsneaked": 5604,
      "Ġnails": 5605,
      "ĠUncle": 5606,
      "Ġoxygen": 5607,
      "ĠFirst": 5608,
      "ĠBeth": 5609,
      "Ġoutdoors": 5610,
      "ĠAnne": 5611,
      "Ġbunnies": 5612,
      "Ġbend": 5613,
      "Johnny": 5614,
      "Fluffy": 5615,
      "ica": 5616,
      "Ġchallenge": 5617,
      "Ġruin": 5618,
      "Ġann": 5619,
      "inda": 5620,
      "Ġwinner": 5621,
      "ĠCoco": 5622,
      "Ġsting": 5623,
      "looking": 5624,
      "ĠSuzy": 5625,
      "Ġkeeps": 5626,
      "Ġcontrol": 5627,
      "Ġinstructions": 5628,
      "Ġmachines": 5629,
      "Ġyelling": 5630,
      "Ġsiren": 5631,
      "ÅĵDon": 5632,
      "Ġwinning": 5633,
      "ears": 5634,
      "ĠBig": 5635,
      "Ġpunished": 5636,
      "Ġpastel": 5637,
      "Ġpiles": 5638,
      "ĠLike": 5639,
      "Ġemergen": 5640,
      "Ġcomple": 5641,
      "Ġaccidents": 5642,
      "len": 5643,
      "Ġpeel": 5644,
      "Ġfetch": 5645,
      "uxu": 5646,
      "ĠItÃ¢": 5647,
      "Ġshoulders": 5648,
      "Ġunderneath": 5649,
      "ĠKe": 5650,
      "aky": 5651,
      "Ġfiremen": 5652,
      "ĠJulie": 5653,
      "Ġbeha": 5654,
      "Ġdraws": 5655,
      "Happy": 5656,
      "ira": 5657,
      "Ġstretching": 5658,
      "Sometimes": 5659,
      "Ġsatisfied": 5660,
      "Ġgathering": 5661,
      "Ġmixing": 5662,
      "Ġincrease": 5663,
      "Ġlines": 5664,
      "Ġproperly": 5665,
      "ayla": 5666,
      "Ġzooming": 5667,
      "Ġstirring": 5668,
      "Ġloving": 5669,
      "Ġtravell": 5670,
      "Ġdam": 5671,
      "oh": 5672,
      "Ġago": 5673,
      "Ġbroom": 5674,
      "Ġpockets": 5675,
      "anta": 5676,
      "Ġintroduc": 5677,
      "Ġteasing": 5678,
      "Ġprinted": 5679,
      "Ġclaps": 5680,
      "Ġneighbourhood": 5681,
      "bbing": 5682,
      "Ġneighbors": 5683,
      "ÅĵLook": 5684,
      "Ġstair": 5685,
      "Ġpancakes": 5686,
      "Ġbrushes": 5687,
      "shing": 5688,
      "Ġsights": 5689,
      "Ġtim": 5690,
      "agull": 5691,
      "thank": 5692,
      "Ġpeaches": 5693,
      "Ġtune": 5694,
      "ĠDid": 5695,
      "Ġcape": 5696,
      "ĠFloppy": 5697,
      "Ġruler": 5698,
      "Ġreleased": 5699,
      "va": 5700,
      "Ġdeser": 5701,
      "ĠYes": 5702,
      "oed": 5703,
      "icky": 5704,
      "Ġbudge": 5705,
      "ĠStop": 5706,
      "gers": 5707,
      "uke": 5708,
      "Ġherbs": 5709,
      "Rex": 5710,
      "Ġbunch": 5711,
      "Ġintroduce": 5712,
      "Ġluxu": 5713,
      "Ġdecides": 5714,
      "Ġfrosting": 5715,
      "Ġmuscles": 5716,
      "ashed": 5717,
      "zen": 5718,
      "ays": 5719,
      "Ġseagull": 5720,
      "Ġdrift": 5721,
      "Ġguns": 5722,
      "Ġribbons": 5723,
      "Ġprotected": 5724,
      "âĤ¬âĢĿ": 5725,
      "Ġpoking": 5726,
      "Ġprunes": 5727,
      "owers": 5728,
      "Ġrelease": 5729,
      "ÅĵThis": 5730,
      "ĠAm": 5731,
      "Ġparked": 5732,
      "low": 5733,
      "Ġconfident": 5734,
      "ales": 5735,
      "Goodbye": 5736,
      "Ġmarks": 5737,
      "Ġcamping": 5738,
      "Ġbuckets": 5739,
      "Ġsolut": 5740,
      "Mr": 5741,
      "Ġinch": 5742,
      "Ġopin": 5743,
      "Ġspiders": 5744,
      "dam": 5745,
      "Ġtouching": 5746,
      "Ġpurred": 5747,
      "Ġladybug": 5748,
      "Ġdent": 5749,
      "Ġstitch": 5750,
      "Ġcrowd": 5751,
      "ĠletÃ¢": 5752,
      "Ġgiggling": 5753,
      "Ġshock": 5754,
      "ĠAn": 5755,
      "Ġbaked": 5756,
      "Ġcompetition": 5757,
      "Ġstudying": 5758,
      "Ġdragons": 5759,
      "riage": 5760,
      "Ġstruck": 5761,
      "Ah": 5762,
      "Ġbeard": 5763,
      "Ġyouth": 5764,
      "Ġourselves": 5765,
      "Ġburrow": 5766,
      "Ġmast": 5767,
      "ĠRabbit": 5768,
      "nes": 5769,
      "Ġsides": 5770,
      "Ġsurface": 5771,
      "Ġrepeated": 5772,
      "Ġdemanded": 5773,
      "Ġmentioned": 5774,
      "ĠLucky": 5775,
      "Ġtickle": 5776,
      "bies": 5777,
      "ais": 5778,
      "icked": 5779,
      "Ġfrozen": 5780,
      "Ġeight": 5781,
      "Ġ1": 5782,
      "Lola": 5783,
      "ednes": 5784,
      "Ġvowed": 5785,
      "Ġentire": 5786,
      "Ġemergency": 5787,
      "ednesday": 5788,
      "zie": 5789,
      "Ġsweeties": 5790,
      "uctantly": 5791,
      "ĠPip": 5792,
      "Ġsteep": 5793,
      "uesday": 5794,
      "ĠJosh": 5795,
      "Ġproject": 5796,
      "Ġpoliceman": 5797,
      "Ġgazed": 5798,
      "Ġmovies": 5799,
      "ason": 5800,
      "ĠThomas": 5801,
      "Ġforgi": 5802,
      "Ġbabies": 5803,
      "Ġbouncy": 5804,
      "Ġgrant": 5805,
      "ĠChloe": 5806,
      "ÅĵHello": 5807,
      "Ġdragged": 5808,
      "jam": 5809,
      "Ġsoaked": 5810,
      "Ġsorting": 5811,
      "Ġstrings": 5812,
      "Ġcrumb": 5813,
      "Ġhorns": 5814,
      "ĠWednesday": 5815,
      "ĠZoom": 5816,
      "Ġloose": 5817,
      "ĠCarl": 5818,
      "Ġexpect": 5819,
      "Ġscurried": 5820,
      "Ġcautious": 5821,
      "ĠTiny": 5822,
      "Ġbarely": 5823,
      "Ġsilence": 5824,
      "ern": 5825,
      "edding": 5826,
      "Ġtonight": 5827,
      "Ġvent": 5828,
      "Ġsnail": 5829,
      "Ġdiscovering": 5830,
      "Ġmittens": 5831,
      "ĠTuesday": 5832,
      "ĠCar": 5833,
      "ĠGr": 5834,
      "Ġrainbows": 5835,
      "Ġpouring": 5836,
      "ĠBetty": 5837,
      "kins": 5838,
      "Ġinterest": 5839,
      "Ġwound": 5840,
      "Ġfoods": 5841,
      "Ġeast": 5842,
      "Ġhonk": 5843,
      "Ġmuffins": 5844,
      "Ġtexture": 5845,
      "Ġcones": 5846,
      "Ġseason": 5847,
      "Ġdrives": 5848,
      "tiest": 5849,
      "Cl": 5850,
      "Ġprettiest": 5851,
      "Ġstole": 5852,
      "Ġkicking": 5853,
      "Ġguys": 5854,
      "Ġresult": 5855,
      "imy": 5856,
      "ena": 5857,
      "exp": 5858,
      "Ġrubbing": 5859,
      "Ġprints": 5860,
      "Ġbank": 5861,
      "Ġlied": 5862,
      "ĠJamie": 5863,
      "ĠHop": 5864,
      "Ġpears": 5865,
      "Ġsausages": 5866,
      "Ġacted": 5867,
      "ĠLulu": 5868,
      "Ġhighest": 5869,
      "Remember": 5870,
      "Ella": 5871,
      "Ġchases": 5872,
      "Ġpatience": 5873,
      "Ġfab": 5874,
      "Ġweb": 5875,
      "Ġfabric": 5876,
      "Ġshelves": 5877,
      "Mar": 5878,
      "Ġgoodnight": 5879,
      "Ġmater": 5880,
      "Ġmateri": 5881,
      "Ġpowers": 5882,
      "Ġrocked": 5883,
      "Ġurged": 5884,
      "ĠTilly": 5885,
      "Ġplanets": 5886,
      "hins": 5887,
      "ĠSanta": 5888,
      "izzie": 5889,
      "Ġcurly": 5890,
      "Ġapplauded": 5891,
      "Ġluxury": 5892,
      "ĠBir": 5893,
      "ĠBubbles": 5894,
      "Ġchewing": 5895,
      "ledge": 5896,
      "ĠRob": 5897,
      "Ġcompleted": 5898,
      "expected": 5899,
      "Ġflat": 5900,
      "Ġchips": 5901,
      "Ġreluctantly": 5902,
      "ĠSusan": 5903,
      "Ġstrike": 5904,
      "Ġcatches": 5905,
      "Ġti": 5906,
      "Ġstaring": 5907,
      "Bella": 5908,
      "Uh": 5909,
      "Ġcurtains": 5910,
      "esome": 5911,
      "usted": 5912,
      "ÅĵWhy": 5913,
      "Ġbloomed": 5914,
      "Ġtwinkling": 5915,
      "ÅĵDonÃ¢": 5916,
      "Ġwest": 5917,
      "Ġsighs": 5918,
      "Ġknowledge": 5919,
      "avi": 5920,
      "eezing": 5921,
      "Ġunexpected": 5922,
      "Ġinclude": 5923,
      "Ġcuts": 5924,
      "Ġstamps": 5925,
      "Ġmatched": 5926,
      "Ġsafer": 5927,
      "Ġthreat": 5928,
      "though": 5929,
      "Ġsinger": 5930,
      "Ġlibrarian": 5931,
      "Ġcontest": 5932,
      "Ġfigured": 5933,
      "Ġimportance": 5934,
      "Mike": 5935,
      "uly": 5936,
      "ĠSure": 5937,
      "Ġdirection": 5938,
      "Ġsituation": 5939,
      "Ġshivered": 5940,
      "uzz": 5941,
      "Ġblink": 5942,
      "Ġwedding": 5943,
      "Ġachieve": 5944,
      "Ġheel": 5945,
      "Ġbottles": 5946,
      "Ġawesome": 5947,
      "Ġpebbles": 5948,
      "Ġpassing": 5949,
      "Ġroaring": 5950,
      "Ġsorted": 5951,
      "Ġslimy": 5952,
      "Ġreplac": 5953,
      "Ġbravery": 5954,
      "Ġdusty": 5955,
      "ÅĵOh": 5956,
      "Ġpretends": 5957,
      "Ġdolphins": 5958,
      "Ġsnugg": 5959,
      "Grandpa": 5960,
      "fit": 5961,
      "Ġcheering": 5962,
      "Ye": 5963,
      "Ġhugging": 5964,
      "Ġexha": 5965,
      "bert": 5966,
      "Ġintroduced": 5967,
      "une": 5968,
      "ĠAlways": 5969,
      "ĠcanÃ¢": 5970,
      "Ġbalancing": 5971,
      "Ġhomework": 5972,
      "acob": 5973,
      "ĠClaire": 5974,
      "Ġtheirs": 5975,
      "Ġpatted": 5976,
      "Ġusual": 5977,
      "hello": 5978,
      "Ġwaiter": 5979,
      "Ġshined": 5980,
      "Ġsweets": 5981,
      "Ġmatching": 5982,
      "Ġmarkers": 5983,
      "ĠMad": 5984,
      "Ġoutfit": 5985,
      "Ġworkers": 5986,
      "Ġscreaming": 5987,
      "Ġpout": 5988,
      "Ġsolution": 5989,
      "immer": 5990,
      "Ġsticking": 5991,
      "ĠLou": 5992,
      "cuse": 5993,
      "Ġtraveled": 5994,
      "Ġplenty": 5995,
      "Ġrocking": 5996,
      "jamas": 5997,
      "lee": 5998,
      "Ġflags": 5999,
      "you": 6000,
      "Ġtowels": 6001,
      "Yeah": 6002,
      "Ġfault": 6003,
      "Ġgreet": 6004,
      "Ġmarriage": 6005,
      "...": 6006,
      "ĠyouÃ¢": 6007,
      "Ġmotion": 6008,
      "ĠNina": 6009,
      "Ġroads": 6010,
      "ĠJessie": 6011,
      "Ġwritten": 6012,
      "Ġreaching": 6013,
      "Ġgrowl": 6014,
      "Ġblooming": 6015,
      "Excuse": 6016,
      "Ġdared": 6017,
      "Ġgoals": 6018,
      "irts": 6019,
      "Ġexpected": 6020,
      "Ġexhausted": 6021,
      "ivery": 6022,
      "Ġuses": 6023,
      "Ġradishes": 6024,
      "Ġdisagree": 6025,
      "Dave": 6026,
      "iar": 6027,
      "Ġarguing": 6028,
      "Ġcaused": 6029,
      "Ġrescued": 6030,
      "ids": 6031,
      "Kitty": 6032,
      "Ġsway": 6033,
      "Ġlamb": 6034,
      "Ġmane": 6035,
      "Ġsled": 6036,
      "Ġpaintings": 6037,
      "Ġobserved": 6038,
      "ĠJeff": 6039,
      "ults": 6040,
      "iles": 6041,
      "Ġstartled": 6042,
      "Ġtruly": 6043,
      "Ġguest": 6044,
      "Ġrecorded": 6045,
      "ĠHa": 6046,
      "Ġzookeeper": 6047,
      "Ġkneeled": 6048,
      "Ġincluded": 6049,
      "itely": 6050,
      "Ġranger": 6051,
      "Ġfart": 6052,
      "Ġslap": 6053,
      "Ġstare": 6054,
      "ĠAunt": 6055,
      "Ġleap": 6056,
      "Ġspraying": 6057,
      "Ġtrembling": 6058,
      "Teddy": 6059,
      "ĠJones": 6060,
      "Ġworker": 6061,
      "Ġarrive": 6062,
      "Ġpacking": 6063,
      "ctions": 6064,
      "Ġstorekeeper": 6065,
      "Ġregretted": 6066,
      "Ġrockets": 6067,
      "Ġcreating": 6068,
      "Ġlap": 6069,
      "Ġresting": 6070,
      "Ġprincesses": 6071,
      "Ġflavor": 6072,
      "Ġtimer": 6073,
      "Fred": 6074,
      "aa": 6075,
      "Ġast": 6076,
      "Ġagrees": 6077,
      "ences": 6078,
      "Ġventured": 6079,
      "njoy": 6080,
      "ĠJenna": 6081,
      "Ġspike": 6082,
      "Ġlearns": 6083,
      "Ġreply": 6084,
      "Ġgrowling": 6085,
      "Ġcompletely": 6086,
      "Ġpoems": 6087,
      "Pete": 6088,
      "Ġstern": 6089,
      "Ġrobb": 6090,
      "Ġdelivery": 6091,
      "Ġpartic": 6092,
      "Ġorganizing": 6093,
      "Ġpencils": 6094,
      "ĠSadly": 6095,
      "Ġcent": 6096,
      "Ġpajamas": 6097,
      "Ġbaker": 6098,
      "Ġvanish": 6099,
      "ĠChrist": 6100,
      "Ġfir": 6101,
      "Ġchuck": 6102,
      "Ġsnakes": 6103,
      "Ġusually": 6104,
      "Afterwards": 6105,
      "vin": 6106,
      "Ġheav": 6107,
      "Ġopening": 6108,
      "Ġinviting": 6109,
      "Ġscra": 6110,
      "Ġprayer": 6111,
      "Ġpenguins": 6112,
      "Ġquacked": 6113,
      "Ġcrumbs": 6114,
      "Ġsuitc": 6115,
      "hell": 6116,
      "Ġflames": 6117,
      "Ġpaddled": 6118,
      "ora": 6119,
      "Ġtwinkle": 6120,
      "vers": 6121,
      "oys": 6122,
      "Leo": 6123,
      "Ġremoved": 6124,
      "Ġowners": 6125,
      "ĠHoppy": 6126,
      "ĠBoth": 6127,
      "ĠwasnÃ¢": 6128,
      "Ġfirm": 6129,
      "essie": 6130,
      "ĠFor": 6131,
      "Ġbead": 6132,
      "ĠAbby": 6133,
      "Ġstruggle": 6134,
      "Ġwink": 6135,
      "Ġaccomplish": 6136,
      "asm": 6137,
      "Ġworries": 6138,
      "Ġeverybody": 6139,
      "Ġcountryside": 6140,
      "Ġwasted": 6141,
      "ĠBye": 6142,
      "Ġdentist": 6143,
      "mas": 6144,
      "Ġremote": 6145,
      "Andy": 6146,
      "Grace": 6147,
      "However": 6148,
      "Ġreplaced": 6149,
      "Ġbelly": 6150,
      "Ġrubs": 6151,
      "Maggie": 6152,
      "pite": 6153,
      "aze": 6154,
      "angled": 6155,
      "Ġteaches": 6156,
      "Ġunf": 6157,
      "Ġcott": 6158,
      "aty": 6159,
      "Ġwandering": 6160,
      "lowly": 6161,
      "per": 6162,
      "Ġroots": 6163,
      "Ġcomm": 6164,
      "Ġactivities": 6165,
      "Ġcrabs": 6166,
      "Ġhealed": 6167,
      "ĠLeave": 6168,
      "Ġlollipops": 6169,
      "Ġunited": 6170,
      "Ġpolishing": 6171,
      "Annie": 6172,
      "iding": 6173,
      "ĠMart": 6174,
      "Ġscales": 6175,
      "Ġreveal": 6176,
      "Ġswirl": 6177,
      "Ġfairies": 6178,
      "aisies": 6179,
      "go": 6180,
      "ĠJu": 6181,
      "Bobby": 6182,
      "Ġthro": 6183,
      "ĠBo": 6184,
      "Ġmisses": 6185,
      "Ġscru": 6186,
      "Ġseesaw": 6187,
      "Ġrolls": 6188,
      "Ġpots": 6189,
      "Ġvalued": 6190,
      "ĠMatt": 6191,
      "Ġthroat": 6192,
      "Ġboo": 6193,
      "Ġpolished": 6194,
      "Ġcloses": 6195,
      "Ġboom": 6196,
      "Ġdaisies": 6197,
      "opes": 6198,
      "ĠChristmas": 6199,
      "dies": 6200,
      "ĠLinda": 6201,
      "Ġparticular": 6202,
      "George": 6203,
      "Ġdesert": 6204,
      "ĠSuzie": 6205,
      "Ġrisk": 6206,
      "Ġtractor": 6207,
      "Ġdarkness": 6208,
      "Ġwinked": 6209,
      "Ġrelief": 6210,
      "Ġmelting": 6211,
      "Mrs": 6212,
      "Ġwires": 6213,
      "Ġdirections": 6214,
      "ĠBy": 6215,
      "Ġpeeking": 6216,
      "Ġcrackers": 6217,
      "Ġhelmets": 6218,
      "ĠFollow": 6219,
      "Ġinterested": 6220,
      "ĠY": 6221,
      "Ġfaced": 6222,
      "Ġknights": 6223,
      "Ġgaze": 6224,
      "araway": 6225,
      "Ġbecoming": 6226,
      "Ġrings": 6227,
      "Ġbalanced": 6228,
      "Ġyounger": 6229,
      "Ġcautiously": 6230,
      "Ġcracked": 6231,
      "ĠDolly": 6232,
      "Ġcause": 6233,
      "Ġfaraway": 6234,
      "Ġphotos": 6235,
      "Ab": 6236,
      "Sophie": 6237,
      "Ëľ": 6238,
      "ĠĊĠ": 6239,
      "âĤ¬Ëľ": 6240,
      "Ġpastries": 6241,
      "Ġleader": 6242,
      "ĠOut": 6243,
      "Mittens": 6244,
      "Ġfreed": 6245,
      "Henry": 6246,
      "Ġsigned": 6247,
      "ĠJohnson": 6248,
      "ĠTwo": 6249,
      "Ġsingle": 6250,
      "Ġfuzzy": 6251,
      "ĠSorry": 6252,
      "ĠMomo": 6253,
      "Ġcash": 6254,
      "Ġstem": 6255,
      "Ġrestored": 6256,
      "ophia": 6257,
      "ĠFox": 6258,
      "Ġwiggled": 6259,
      "Ġdipped": 6260,
      "Ġsquealed": 6261,
      "boat": 6262,
      "Ġgroceries": 6263,
      "Ġlogs": 6264,
      "Ġstaying": 6265,
      "Ġnaps": 6266,
      "Ġitchy": 6267,
      "ĠUnfortunately": 6268,
      "lings": 6269,
      "ĠLuke": 6270,
      "Ġcoloured": 6271,
      "Ġforehead": 6272,
      "Ġchuckled": 6273,
      "Bad": 6274,
      "Ġhowever": 6275,
      "Ġyesterday": 6276,
      "Ġwrist": 6277,
      "Ġfilling": 6278,
      "Fine": 6279,
      "Ġcough": 6280,
      "Ġwow": 6281,
      "Ġripe": 6282,
      "ĠAdam": 6283,
      "Ġsneaky": 6284,
      "Ġblows": 6285,
      "Ġseems": 6286,
      "rance": 6287,
      "Ġden": 6288,
      "Ġslam": 6289,
      "Ġlistens": 6290,
      "ĠPut": 6291,
      "Ġrefle": 6292,
      "Fr": 6293,
      "Ġcous": 6294,
      "ĠBeing": 6295,
      "Ġopinion": 6296,
      "Ġrecording": 6297,
      "Ġfluttered": 6298,
      "Ġbeads": 6299,
      "Ġtrips": 6300,
      "ĠPinky": 6301,
      "Ġsilent": 6302,
      "Ġlined": 6303,
      "ĠLizzie": 6304,
      "Ġmarked": 6305,
      "Ġbowls": 6306,
      "Ġswooped": 6307,
      "Ġtricked": 6308,
      "Ġactions": 6309,
      "oline": 6310,
      "Unfortunately": 6311,
      "ĠHannah": 6312,
      "Ġtipt": 6313,
      "ĠJessica": 6314,
      "Ġfirefighters": 6315,
      "Ġsplashes": 6316,
      "bbly": 6317,
      "Ġdetermination": 6318,
      "Ġsnat": 6319,
      "Ġhider": 6320,
      "Ġhissed": 6321,
      "Ġpiggy": 6322,
      "Ġwears": 6323,
      "cited": 6324,
      "Ġadding": 6325,
      "Ġbumps": 6326,
      "Ġstroll": 6327,
      "Rose": 6328,
      "ĠCindy": 6329,
      "ĠPipp": 6330,
      "Millie": 6331,
      "Ġkites": 6332,
      "Ġtwin": 6333,
      "Ġseeker": 6334,
      "Ġsnowballs": 6335,
      "James": 6336,
      "Ġhi": 6337,
      "ilo": 6338,
      "igi": 6339,
      "Ġhandful": 6340,
      "Ġtricky": 6341,
      "Ġconn": 6342,
      "Ellie": 6343,
      "ords": 6344,
      "Ġsomebody": 6345,
      "Ġpleasure": 6346,
      "Ġsobbed": 6347,
      "Ġstays": 6348,
      "Ġsandcastles": 6349,
      "yond": 6350,
      "Ġsense": 6351,
      "Ġbeyond": 6352,
      "Ġroses": 6353,
      "Ġrule": 6354,
      "Ġfroze": 6355,
      "ppers": 6356,
      "Ġhealth": 6357,
      "Ġscarves": 6358,
      "Ġcopy": 6359,
      "Ġexplorers": 6360,
      "ĠDoggy": 6361,
      "Ġlighter": 6362,
      "Paul": 6363,
      "Ġcubes": 6364,
      "ÅĵMommy": 6365,
      "Ġprotecting": 6366,
      "Ġprovided": 6367,
      "Ġaff": 6368,
      "Ġawake": 6369,
      "ĠKayla": 6370,
      "Ġcovers": 6371,
      "ĠMany": 6372,
      "Ġbakery": 6373,
      "Ġbumpy": 6374,
      "ĠMira": 6375,
      "ĠKeep": 6376,
      "incess": 6377,
      "ĠMick": 6378,
      "Ġdarker": 6379,
      "ility": 6380,
      "Ġlung": 6381,
      "Ġseven": 6382,
      "Ġcelebration": 6383,
      "affes": 6384,
      "iki": 6385,
      "Ġbacked": 6386,
      "Ġsecure": 6387,
      "Ġinsp": 6388,
      "Ġnect": 6389,
      "Ġdelivered": 6390,
      "Ġcalmed": 6391,
      "Ġnectar": 6392,
      "Some": 6393,
      "Ġbars": 6394,
      "ĠEnjoy": 6395,
      "Ġgiraffes": 6396,
      "Ġnoon": 6397,
      "Ġyourselves": 6398,
      "Ġstolen": 6399,
      "Ġpastels": 6400,
      "Ġcashier": 6401,
      "Run": 6402,
      "anes": 6403,
      "Ġglasses": 6404,
      "Ġtickled": 6405,
      "Ġpedals": 6406,
      "ĠQuack": 6407,
      "ĠBird": 6408,
      "ĠMon": 6409,
      "ĠFriend": 6410,
      "ĠTara": 6411,
      "Ġdeal": 6412,
      "Ġentrance": 6413,
      "Ġinsects": 6414,
      "Ġcomplaining": 6415,
      "Ġmes": 6416,
      "ĠWatch": 6417,
      "Ġglee": 6418,
      "Ġjoking": 6419,
      "ĠLizzy": 6420,
      "ÅĵWhatÃ¢": 6421,
      "ormed": 6422,
      "umm": 6423,
      "Ġattack": 6424,
      "Ġmesmer": 6425,
      "boo": 6426,
      "Ġliqu": 6427,
      "Ġsuitcase": 6428,
      "?'": 6429,
      "Bun": 6430,
      "Ġthorn": 6431,
      "Ġcust": 6432,
      "Ġcans": 6433,
      "aren": 6434,
      "Ġcowb": 6435,
      "ĠNothing": 6436,
      "Ġafterwards": 6437,
      "Ġtallest": 6438,
      "Ġtalented": 6439,
      "rious": 6440,
      "Ġmiles": 6441,
      "arter": 6442,
      "ĠMo": 6443,
      "ths": 6444,
      "Sad": 6445,
      "coat": 6446,
      "Ġsalty": 6447,
      "Ġfolding": 6448,
      "Ġinstrum": 6449,
      "Ġcustom": 6450,
      "Ġopp": 6451,
      "Ġbadge": 6452,
      "Joey": 6453,
      "Ġseashell": 6454,
      "Ġfarther": 6455,
      "igers": 6456,
      "no": 6457,
      "ĠGet": 6458,
      "ĠEverybody": 6459,
      "Ġreads": 6460,
      "ners": 6461,
      "elle": 6462,
      "Ġkicks": 6463,
      "Ġbeginning": 6464,
      "Alex": 6465,
      "Ġsib": 6466,
      "aura": 6467,
      "May": 6468,
      "hee": 6469,
      "ĠTess": 6470,
      "arling": 6471,
      "Ġparties": 6472,
      "choo": 6473,
      "Ġcolored": 6474,
      "Ġsmarter": 6475,
      "Ġmasks": 6476,
      "Ġty": 6477,
      "ĠWater": 6478,
      "Ġspeaking": 6479,
      "ĠJon": 6480,
      "Ġbehavi": 6481,
      "Ġachieved": 6482,
      "ĠJazz": 6483,
      "Ġknees": 6484,
      "ĠPl": 6485,
      "ossible": 6486,
      "Charlie": 6487,
      "Ġcandies": 6488,
      "Ġgems": 6489,
      "Bl": 6490,
      "Ġraincoat": 6491,
      "rig": 6492,
      "Ġimpossible": 6493,
      "Ġacting": 6494,
      "Ġwipes": 6495,
      "Ġvideos": 6496,
      "Ġmarker": 6497,
      "Ġknocks": 6498,
      "band": 6499,
      "step": 6500,
      "sequ": 6501,
      "Ġweeping": 6502,
      "iled": 6503,
      "ĠBuzzy": 6504,
      "Ġrecommended": 6505,
      "Ġtangled": 6506,
      "ana": 6507,
      "Those": 6508,
      "Ġburst": 6509,
      "Ġmi": 6510,
      "Ġconsequ": 6511,
      "Ġindeed": 6512,
      "ĠLena": 6513,
      "ĠJacob": 6514,
      "Ġclick": 6515,
      "ĠPandy": 6516,
      "Ġsteer": 6517,
      "Ġbuying": 6518,
      "Ġjackets": 6519,
      "ĠHappy": 6520,
      "Ġmixture": 6521,
      "Ġdots": 6522,
      "Ġpause": 6523,
      "Ġimproved": 6524,
      "Ġaccomplishment": 6525,
      "Kate": 6526,
      "ĠRobby": 6527,
      "Ġchoices": 6528,
      "Ġarrows": 6529,
      "Ġexperien": 6530,
      "Ġsmiley": 6531,
      "Ġchefs": 6532,
      "Ġtigers": 6533,
      "Ġliquid": 6534,
      "Time": 6535,
      "?\",": 6536,
      "Ġpaddle": 6537,
      "ĠMel": 6538,
      "Ġteased": 6539,
      "itches": 6540,
      "ĠPrincess": 6541,
      "Ġcheeks": 6542,
      "Ġmagnets": 6543,
      "Ġswimsuit": 6544,
      "Ġscaring": 6545,
      "ĠEarth": 6546,
      "brush": 6547,
      "umbling": 6548,
      "Ġwins": 6549,
      "ĠLuckily": 6550,
      "ĠwouldnÃ¢": 6551,
      "ivity": 6552,
      "Ġcomplained": 6553,
      "Ġbedtime": 6554,
      "Ġshirts": 6555,
      "ÅĵDo": 6556,
      "Ġdrums": 6557,
      "ĠJulia": 6558,
      "Ġrumble": 6559,
      "Ġsnatched": 6560,
      "hew": 6561,
      "Ġwee": 6562,
      "ept": 6563,
      "Ġchoo": 6564,
      "Toby": 6565,
      "urry": 6566,
      "Ġpaying": 6567,
      "tle": 6568,
      "atul": 6569,
      "vest": 6570,
      "Ġhallway": 6571,
      "Ġtravelled": 6572,
      "tuce": 6573,
      "Ġstung": 6574,
      "Ġlettuce": 6575,
      "Ġhesitated": 6576,
      "Ġannoy": 6577,
      "Days": 6578,
      "cope": 6579,
      "ĠSqu": 6580,
      "Ġfamilies": 6581,
      "Ġconsequences": 6582,
      "Danny": 6583,
      "Ġlun": 6584,
      "ĠLarry": 6585,
      "Ġneither": 6586,
      "Ġperformance": 6587,
      "ÅĵCome": 6588,
      "Ġcreativity": 6589,
      "Ġtasks": 6590,
      "Ġbehaved": 6591,
      "Ġscrubbed": 6592,
      "Ġthird": 6593,
      "Ġswept": 6594,
      "ÅĵHi": 6595,
      "Ġruining": 6596,
      "Ġwidened": 6597,
      "ĠĠĊ": 6598,
      "abel": 6599,
      "rigued": 6600,
      "itched": 6601,
      "Ġflapping": 6602,
      "Ġgracefully": 6603,
      "Ġneedles": 6604,
      "Ġsnuck": 6605,
      "ÅĵWow": 6606,
      "Ġsailboat": 6607,
      "Ġcupcakes": 6608,
      "Ġclowns": 6609,
      "Ġlower": 6610,
      "Ġpouted": 6611,
      "eal": 6612,
      "elia": 6613,
      "indr": 6614,
      "Ġleading": 6615,
      "Ġseconds": 6616,
      "Ġyells": 6617,
      "Ġwrapping": 6618,
      "yan": 6619,
      "Ġbasement": 6620,
      "Ġstroked": 6621,
      "ĠSlowly": 6622,
      "endy": 6623,
      "Ġraindr": 6624,
      "ĠSnugg": 6625,
      "Ġrusty": 6626,
      "Ġfever": 6627,
      "Ġcelebrating": 6628,
      "Shh": 6629,
      "Ġdrifted": 6630,
      "Ġhearing": 6631,
      "Ġech": 6632,
      "Ġcreamy": 6633,
      "Ġfluttering": 6634,
      "Que": 6635,
      "ĠWithout": 6636,
      "ĠSque": 6637,
      "Bobo": 6638,
      "Ġswans": 6639,
      "ĠGoodbye": 6640,
      "ded": 6641,
      "ans": 6642,
      "Ġdiving": 6643,
      "ĠOlive": 6644,
      "Ġsiblings": 6645,
      "Queen": 6646,
      "Ġbeam": 6647,
      "ĠEl": 6648,
      "Ġpeacefully": 6649,
      "Ġdef": 6650,
      "Ġsource": 6651,
      "ĠMikey": 6652,
      "ĠSophia": 6653,
      "Ġbatteries": 6654,
      "ouch": 6655,
      "anging": 6656,
      "Ġsprinkled": 6657,
      "atur": 6658,
      "ndpare": 6659,
      "Ġscratches": 6660,
      "Ġstomped": 6661,
      "Ġbackwards": 6662,
      "Ġconcer": 6663,
      "Ġpointy": 6664,
      "Ġgrowls": 6665,
      "Ġmaterials": 6666,
      "Ġcor": 6667,
      "Ġwilling": 6668,
      "ĠGigi": 6669,
      "immering": 6670,
      "Ġhoriz": 6671,
      "Ġobjects": 6672,
      "Ġdeserve": 6673,
      "ĠSnuggles": 6674,
      "Ġmushrooms": 6675,
      "Ġornaments": 6676,
      "Ġpuppies": 6677,
      "Ġcuddly": 6678,
      "Ġhorizon": 6679,
      "Ġpassen": 6680,
      "Ġsquares": 6681,
      "ounce": 6682,
      "Ġscrews": 6683,
      "Ġartist": 6684,
      "Ġgrabbing": 6685,
      "cers": 6686,
      "Ġtemper": 6687,
      "ÅĵYouÃ¢": 6688,
      "ky": 6689,
      "Ġlosing": 6690,
      "Ġwadd": 6691,
      "Ġtiptoed": 6692,
      "ishy": 6693,
      "ĠwonÃ¢": 6694,
      "Ġrivers": 6695,
      "Ġaren": 6696,
      "Ġfact": 6697,
      "Ġchip": 6698,
      "Great": 6699,
      "Ġhus": 6700,
      "Ġgrandpare": 6701,
      "Ġgrassy": 6702,
      "ĠMickey": 6703,
      "igning": 6704,
      "Ġrising": 6705,
      "Ġraindrops": 6706,
      "Ġdarling": 6707,
      "Ġdollhouse": 6708,
      "alph": 6709,
      "Ġsnowmen": 6710,
      "Ġtempt": 6711,
      "ntil": 6712,
      "Ġdamage": 6713,
      "Ġchop": 6714,
      "Ġamong": 6715,
      "Ġplayers": 6716,
      "ĠRock": 6717,
      "ĠFinn": 6718,
      "Ġstudents": 6719,
      "Ġnoses": 6720,
      "Ġbeloved": 6721,
      "ongr": 6722,
      "cl": 6723,
      "Ġrip": 6724,
      "Ġavoid": 6725,
      "Ġpromises": 6726,
      "Ġrepa": 6727,
      "oey": 6728,
      "iece": 6729,
      "Ġhides": 6730,
      "An": 6731,
      "kend": 6732,
      "ongratul": 6733,
      "dri": 6734,
      "Ġgross": 6735,
      "Ġtreehouse": 6736,
      "Ġheading": 6737,
      "rrrr": 6738,
      "Ġastron": 6739,
      "Ġfears": 6740,
      "Ġweekend": 6741,
      "Have": 6742,
      "mallow": 6743,
      "ades": 6744,
      "arshmallow": 6745,
      "Roar": 6746,
      "Ġonions": 6747,
      "Ġrewarded": 6748,
      "Ġrepaired": 6749,
      "Polly": 6750,
      "Ġstool": 6751,
      "Ġpans": 6752,
      "Ġhusband": 6753,
      "ĠQueen": 6754,
      "Ġforgiven": 6755,
      "Ġlimes": 6756,
      "Ġtramp": 6757,
      "Ġsale": 6758,
      "Ġsparks": 6759,
      "Ġneighbours": 6760,
      "ĠAbbie": 6761,
      "Ġastronaut": 6762,
      "For": 6763,
      "oor": 6764,
      "ĠBinky": 6765,
      "Ġslammed": 6766,
      "Ġwindy": 6767,
      "Harry": 6768,
      "Lilly": 6769,
      "Ġunpacked": 6770,
      "Ġmeals": 6771,
      "Ġforgets": 6772,
      "Ġafford": 6773,
      "Ġaud": 6774,
      "Ġrecipe": 6775,
      "Ġseparated": 6776,
      "Milly": 6777,
      "Ġbodies": 6778,
      "Ġspikes": 6779,
      "Ġdreamt": 6780,
      "Ġwraps": 6781,
      "Ġmer": 6782,
      "--": 6783,
      "Ġreass": 6784,
      "Ġuns": 6785,
      "ĠZip": 6786,
      "Ġtrampoline": 6787,
      "Ġdads": 6788,
      "Ġache": 6789,
      "Ew": 6790,
      "wk": 6791,
      "Ġimagining": 6792,
      "Ġpresses": 6793,
      "Ġzebras": 6794,
      "Ġcenter": 6795,
      "Ġtapped": 6796,
      "Ġwarnings": 6797,
      "Ġcreations": 6798,
      "ael": 6799,
      "ĠBee": 6800,
      "Fin": 6801,
      "Ġmarshmallow": 6802,
      "itted": 6803,
      "ĠRemember": 6804,
      "Ġforks": 6805,
      "Ġincluding": 6806,
      "Ġtouc": 6807,
      "Ġadult": 6808,
      "Ġprinting": 6809,
      "Ġmagician": 6810,
      "ments": 6811,
      "Meow": 6812,
      "ĠSparky": 6813,
      "yes": 6814,
      "uzzy": 6815,
      "Ġprett": 6816,
      "ĠEmmy": 6817,
      "Ġdecorating": 6818,
      "Ġwishing": 6819,
      "Ġheavier": 6820,
      "Ġtemperature": 6821,
      "Ru": 6822,
      "ichael": 6823,
      "Ġrustling": 6824,
      "Boo": 6825,
      "ne": 6826,
      "ĠEls": 6827,
      "Ġwrink": 6828,
      "int": 6829,
      "child": 6830,
      "Ġrefu": 6831,
      "Ġcorners": 6832,
      "ably": 6833,
      "ĠPam": 6834,
      "Ġdollars": 6835,
      "Ġsailors": 6836,
      "Ġhesitant": 6837,
      "ĠHoot": 6838,
      "Ġcousin": 6839,
      "ĠJay": 6840,
      "Wh": 6841,
      "ition": 6842,
      "Ġintrigued": 6843,
      "Ġplans": 6844,
      "Ġdiscussed": 6845,
      "Oops": 6846,
      "Woof": 6847,
      "pr": 6848,
      "Ġsurroundings": 6849,
      "Ġprettier": 6850,
      "Ġhops": 6851,
      "Ġaudience": 6852,
      "Baby": 6853,
      "fall": 6854,
      "Ġhawk": 6855,
      "Ġstain": 6856,
      "Ġslices": 6857,
      "aker": 6858,
      "Ġbows": 6859,
      "Ġwiping": 6860,
      "Ġenthusi": 6861,
      "imon": 6862,
      "Ġneatly": 6863,
      "Ġsnuggle": 6864,
      "cky": 6865,
      "Ġarr": 6866,
      "Ġage": 6867,
      "Ġsnowfl": 6868,
      "Ġgasp": 6869,
      "Ġfeeding": 6870,
      "Ġenthusiasm": 6871,
      "Ġcoup": 6872,
      "ĠMilo": 6873,
      "Ġpecked": 6874,
      "Ġtails": 6875,
      "Ġplanning": 6876,
      "Ġgranted": 6877,
      "sty": 6878,
      "unched": 6879,
      "opsy": 6880,
      "Ġstreets": 6881,
      "Ġgri": 6882,
      "Ġblocking": 6883,
      "ĠAsh": 6884,
      "Ġdesigned": 6885,
      "ĠRover": 6886,
      "using": 6887,
      "Ġhelpers": 6888,
      "Ġ10": 6889,
      "Sandy": 6890,
      "Ġreflection": 6891,
      "llen": 6892,
      "Ġgobbled": 6893,
      "Ġscamp": 6894,
      "ĠTodd": 6895,
      "ÅĵMy": 6896,
      "Ġcounts": 6897,
      "Ġminerals": 6898,
      "Pat": 6899,
      "arrow": 6900,
      "ĠLaura": 6901,
      "Ġslower": 6902,
      "ĠBluey": 6903,
      "Ġgrandchild": 6904,
      "Ġscrewdri": 6905,
      "Ġhandsome": 6906,
      "Ġborrowed": 6907,
      "Ġleaning": 6908,
      "Ġwoof": 6909,
      "ĠDr": 6910,
      "Ġtwice": 6911,
      "Tr": 6912,
      "Whee": 6913,
      "itude": 6914,
      "Ġdet": 6915,
      "Ġearn": 6916,
      "Ġdod": 6917,
      "Ġdived": 6918,
      "Ġtriangles": 6919,
      "Ġchos": 6920,
      "Ġtouches": 6921,
      "Ġchosen": 6922,
      "ĠNick": 6923,
      "Ġreason": 6924,
      "Ġremembering": 6925,
      "hog": 6926,
      "Ġhour": 6927,
      "Ġge": 6928,
      "Ġnibb": 6929,
      "Ġpeppers": 6930,
      "Ġthrown": 6931,
      "ĠThose": 6932,
      "Ġzipping": 6933,
      "ĠJune": 6934,
      "Ġshrinking": 6935,
      "Ġpraying": 6936,
      "ĠRobbie": 6937,
      "Fo": 6938,
      "Ġwobbled": 6939,
      "Ġpuppet": 6940,
      "Tina": 6941,
      "Ġhitting": 6942,
      "Ġspong": 6943,
      "ertain": 6944,
      "Ġcouple": 6945,
      "Yummy": 6946,
      "Ġcond": 6947,
      "Ġsunflowers": 6948,
      "Ġfeast": 6949,
      "ushing": 6950,
      "Ġheroes": 6951,
      "Ġrequested": 6952,
      "Maria": 6953,
      "Ġnine": 6954,
      "ĠFar": 6955,
      "Ġstarfish": 6956,
      "Ġtunnels": 6957,
      "Ġfamiliar": 6958,
      "jo": 6959,
      "eds": 6960,
      "Ġshops": 6961,
      "Ġcorre": 6962,
      "ĠThanks": 6963,
      "Ġrobber": 6964,
      "Ġlungs": 6965,
      "Surpr": 6966,
      "Ġdances": 6967,
      "Ġspreading": 6968,
      "ĠUntil": 6969,
      "Ġwag": 6970,
      "ĠCra": 6971,
      "otten": 6972,
      "Ġforgetting": 6973,
      "Ġspoonful": 6974,
      "Ġscrewdriver": 6975,
      "vil": 6976,
      "Ġaside": 6977,
      "Ġdelivering": 6978,
      "ĠFriends": 6979,
      "Ġgrandparents": 6980,
      "ido": 6981,
      "aster": 6982,
      "Ġgreeted": 6983,
      "Ġcoloring": 6984,
      "Ġbuzzed": 6985,
      "Ġbaths": 6986,
      "Ġhopeful": 6987,
      "Ġpreparing": 6988,
      "ccoon": 6989,
      "Clara": 6990,
      "Ġraccoon": 6991,
      "Ġmuscle": 6992,
      "Ġpotion": 6993,
      "ĠNobody": 6994,
      "Ġsuperheroes": 6995,
      "Jul": 6996,
      "Pe": 6997,
      "rey": 6998,
      "iley": 6999,
      "Ġcuriously": 7000,
      "ĠStella": 7001,
      "Ġbreathed": 7002,
      "Ġtiss": 7003,
      "oni": 7004,
      "Ġrotten": 7005,
      "Ġcoc": 7006,
      "ĠRyan": 7007,
      "Ġhedgehog": 7008,
      "Ġmesmerized": 7009,
      "Ġposs": 7010,
      "Ġembarrass": 7011,
      "By": 7012,
      "ippy": 7013,
      "ĠSc": 7014,
      "ados": 7015,
      "ĠRobert": 7016,
      "ĠMartha": 7017,
      "ĠWendy": 7018,
      "Ġgardener": 7019,
      "ounced": 7020,
      "Ġseaw": 7021,
      "Ġlifts": 7022,
      "Ġdie": 7023,
      "arac": 7024,
      "Ġsports": 7025,
      "Our": 7026,
      "Ġsofter": 7027,
      "Ġblast": 7028,
      "ĠFrog": 7029,
      "Ducky": 7030,
      "ae": 7031,
      "Ġdaring": 7032,
      "Ġleast": 7033,
      "Ġmerry": 7034,
      "ĠSun": 7035,
      "Ġcrashing": 7036,
      "fly": 7037,
      "Ġvanilla": 7038,
      "Ġthud": 7039,
      "Miss": 7040,
      "ĠListen": 7041,
      "ently": 7042,
      "ters": 7043,
      "Ġbully": 7044,
      "Ġsneezing": 7045,
      "Ġshaped": 7046,
      "Ġplain": 7047,
      "Ġflas": 7048,
      "Ġstands": 7049,
      "Ġnecklaces": 7050,
      "Ġplucked": 7051,
      "fus": 7052,
      "Ġgeese": 7053,
      "Ġsponge": 7054,
      "Ġtodd": 7055,
      "Ġnur": 7056,
      "Ġneare": 7057,
      "Ġchanging": 7058,
      "Ġsniffs": 7059,
      "the": 7060,
      "Ġpolar": 7061,
      "Ġtested": 7062,
      "Ġsewing": 7063,
      "Ġpens": 7064,
      "Ġsqueak": 7065,
      "Ġwiggle": 7066,
      "Ġguests": 7067,
      "Ġseaweed": 7068,
      "Bill": 7069,
      "Ġtalks": 7070,
      "ĠFire": 7071,
      "Ġpuff": 7072,
      "ĠMaya": 7073,
      "Ġwhispers": 7074,
      "Ġscraped": 7075,
      "Ġhonked": 7076,
      "Ġfirefighter": 7077,
      "Ġonward": 7078,
      "Ġglued": 7079,
      "Nemo": 7080,
      "ĠEx": 7081,
      "Ġposter": 7082,
      "Ġnapkins": 7083,
      "cused": 7084,
      "Ġmunch": 7085,
      "Ġworn": 7086,
      "Ġcharac": 7087,
      "Ġfocused": 7088,
      "ĠKiki": 7089,
      "Ġrespected": 7090,
      "Ġflavors": 7091,
      "ĠGranny": 7092,
      "iment": 7093,
      "Ġalien": 7094,
      "ÅĵWell": 7095,
      "Ġwarmer": 7096,
      "Ġcraft": 7097,
      "Ġthroughout": 7098,
      "Ġpanicked": 7099,
      "ĠAbi": 7100,
      "Ġsuffering": 7101,
      "Blue": 7102,
      "Ġjoining": 7103,
      "Ġexpress": 7104,
      "ĠZoey": 7105,
      "Ġmoo": 7106,
      "Ġflight": 7107,
      "ÅĵMom": 7108,
      "Ġmarshmallows": 7109,
      "ĠStar": 7110,
      "Ġavocados": 7111,
      "ĠSadie": 7112,
      "Ġskunk": 7113,
      "Ġmatters": 7114,
      "Ġjoyful": 7115,
      "ĠOur": 7116,
      "ĠJanie": 7117,
      "ĠSqueaky": 7118,
      "Katie": 7119,
      "ĠTake": 7120,
      "Ġgest": 7121,
      "Ġrespond": 7122,
      "Ġdrivers": 7123,
      "ĠBirthday": 7124,
      "Ġropes": 7125,
      "Ġspins": 7126,
      "Ġpops": 7127,
      "Ġbells": 7128,
      "Dan": 7129,
      "ĠOnly": 7130,
      "ugs": 7131,
      "Ġrefreshing": 7132,
      "Sadly": 7133,
      "Ġscampered": 7134,
      "Nina": 7135,
      "stick": 7136,
      "bird": 7137,
      "urious": 7138,
      "allowed": 7139,
      "Ġswallowed": 7140,
      "ĠJacky": 7141,
      "Ġmints": 7142,
      "Tweety": 7143,
      "Ġoh": 7144,
      "Ġslips": 7145,
      "Ġstrongest": 7146,
      "Ġlessons": 7147,
      "Ġwrigg": 7148,
      "Ġgrows": 7149,
      "Ġincreased": 7150,
      "ĠthatÃ¢": 7151,
      "Ġcrew": 7152,
      "Quick": 7153,
      "Ġdrawn": 7154,
      "retty": 7155,
      "ĠChe": 7156,
      "Ġdefe": 7157,
      "Ġencourag": 7158,
      "Ġleapt": 7159,
      "Very": 7160,
      "Ġpours": 7161,
      "Ġocc": 7162,
      "ĠStay": 7163,
      "Ġsending": 7164,
      "Ġresisted": 7165,
      "plash": 7166,
      "Ġfreedom": 7167,
      "Ġtossed": 7168,
      "Ġscen": 7169,
      "Ġroars": 7170,
      "Ġbiting": 7171,
      "years": 7172,
      "...\"": 7173,
      "ĠOwl": 7174,
      "ino": 7175,
      "Ġtrot": 7176,
      "Ġdancers": 7177,
      "Ġdrawers": 7178,
      "Ġcausing": 7179,
      "Ġleads": 7180,
      "Back": 7181,
      "Ġdip": 7182,
      "Ġpeck": 7183,
      "Ġwobbly": 7184,
      "ĠBessie": 7185,
      "Ġspices": 7186,
      "Ġwatering": 7187,
      "Ġexplo": 7188,
      "bba": 7189,
      "Ġperformed": 7190,
      "Ġtwisty": 7191,
      "Ġrout": 7192,
      "ĠZara": 7193,
      "Ġswords": 7194,
      "Ġdresser": 7195,
      "Ġyielded": 7196,
      "Ġwaddled": 7197,
      "Ġtissue": 7198,
      "Ġguide": 7199,
      "Ġunsure": 7200,
      "Ġnood": 7201,
      "Ġproper": 7202,
      "Ġsteady": 7203,
      "ĠHoney": 7204,
      "Ġspat": 7205,
      "ection": 7206,
      "Ġtwinkled": 7207,
      "Br": 7208,
      "lets": 7209,
      "Ġnervously": 7210,
      "Ġtrembled": 7211,
      "ĠJudy": 7212,
      "irrel": 7213,
      "Ġevil": 7214,
      "ĠLove": 7215,
      "Ġdropping": 7216,
      "Ġgarb": 7217,
      "Ġstacked": 7218,
      "Ġfirefly": 7219,
      "Ġdoorway": 7220,
      "ĠDavey": 7221,
      "Ġgarbage": 7222,
      "cake": 7223,
      "Ġwakes": 7224,
      "Ġpound": 7225,
      "Ġgears": 7226,
      "Ġsan": 7227,
      "ĠLi": 7228,
      "roken": 7229,
      "Ġamount": 7230,
      "Ġprove": 7231,
      "Ġquarreling": 7232,
      "iona": 7233,
      "Ġmonths": 7234,
      "Ġpennies": 7235,
      "Ġlifting": 7236,
      "Ġtoaster": 7237,
      "but": 7238,
      "Ġsquishy": 7239,
      "Ġtables": 7240,
      "Ġgiggles": 7241,
      "ĠMeg": 7242,
      "Ġaimed": 7243,
      "ĠJackie": 7244,
      "Ġplaytime": 7245,
      "Ġclues": 7246,
      "Ġcosy": 7247,
      "Ġwept": 7248,
      "Ġappreciation": 7249,
      "Ġechoed": 7250,
      "please": 7251,
      "onna": 7252,
      "ĠBaa": 7253,
      "ĠGina": 7254,
      "vant": 7255,
      "Ġmate": 7256,
      "Ġoffic": 7257,
      "ĠThatÃ¢": 7258,
      "Ġfits": 7259,
      "Ġsharks": 7260,
      "Ġfirmly": 7261,
      "Ġdesigns": 7262,
      "Ġbehaving": 7263,
      "Ġsank": 7264,
      "Ġfaded": 7265,
      "Ġsadd": 7266,
      "ĠWally": 7267,
      "Ġoysters": 7268,
      "ĠFarmer": 7269,
      "mates": 7270,
      "upt": 7271,
      "ÅĵBut": 7272,
      "Ġgrandd": 7273,
      "Ġpigeons": 7274,
      "Ġloading": 7275,
      "Ġpins": 7276,
      "Ġrushing": 7277,
      "Ġpolitely": 7278,
      "Ġpostman": 7279,
      "eel": 7280,
      "ĊĊ": 7281,
      "Ġsy": 7282,
      "Ġnotes": 7283,
      "ĠAng": 7284,
      "Ġscient": 7285,
      "Ġbravest": 7286,
      "Ġfleas": 7287,
      "ĠFrosty": 7288,
      "Ruby": 7289,
      "Ġscientist": 7290,
      "Ġprob": 7291,
      "ÅĵWhere": 7292,
      "Ġduckling": 7293,
      "ÅĵIf": 7294,
      "Watch": 7295,
      "Ġmanag": 7296,
      "Ġmaster": 7297,
      "Ġprobably": 7298,
      "fire": 7299,
      "Ġshady": 7300,
      "ĠFlopsy": 7301,
      "lves": 7302,
      "ĠWell": 7303,
      "ÅĵNow": 7304,
      "Ġencouraging": 7305,
      "ody": 7306,
      "Ġplayroom": 7307,
      "Ġblinking": 7308,
      "ĠFido": 7309,
      "Ġconfl": 7310,
      "Ġseller": 7311,
      "Ġreversed": 7312,
      "Ġpassengers": 7313,
      "Listen": 7314,
      "Mine": 7315,
      "Ġ2": 7316,
      "Ġrobots": 7317,
      "Ġfrowning": 7318,
      "Ġsurrendered": 7319,
      "Ġgonna": 7320,
      "Ġovercome": 7321,
      "eezes": 7322,
      "Like": 7323,
      "anwhile": 7324,
      "antha": 7325,
      "bbling": 7326,
      "ĠAli": 7327,
      "Ġties": 7328,
      "Ġnuzz": 7329,
      "ppies": 7330,
      "Ġthoughts": 7331,
      "ĠRalph": 7332,
      "broken": 7333,
      "Ġcertain": 7334,
      "ĠRay": 7335,
      "During": 7336,
      "cher": 7337,
      "Ġcongratul": 7338,
      "Ġkittens": 7339,
      "idey": 7340,
      "ĠGreen": 7341,
      "Ġnearly": 7342,
      "Ġtricycle": 7343,
      "Ġhealing": 7344,
      "espite": 7345,
      "Ġshown": 7346,
      "ĠMouse": 7347,
      "Ġhumans": 7348,
      "Jerry": 7349,
      "ĠLia": 7350,
      "Ġbits": 7351,
      "rrr": 7352,
      "Ġresults": 7353,
      "?!\"": 7354,
      "oke": 7355,
      "aying": 7356,
      "Ġreun": 7357,
      "Ġcobwebs": 7358,
      "Ġinj": 7359,
      "Ġcolder": 7360,
      "ĠKaren": 7361,
      "meal": 7362,
      "Ġpumpkins": 7363,
      "Ġbreathing": 7364,
      "now": 7365,
      "Ġscored": 7366,
      "Ġflown": 7367,
      "Ġwaterfall": 7368,
      "Ġunw": 7369,
      "Ġtwisting": 7370,
      "Follow": 7371,
      "Ġtuck": 7372,
      "ĠTuna": 7373,
      "Ġslither": 7374,
      "Ġcushions": 7375,
      "Ġbehavior": 7376,
      "ening": 7377,
      "Ġadults": 7378,
      "Ġwarri": 7379,
      "Ġtighter": 7380,
      "alloween": 7381,
      "Ġaction": 7382,
      "Ġpaths": 7383,
      "ĠAlong": 7384,
      "Even": 7385,
      "dress": 7386,
      "Ġcoug": 7387,
      "ÅĵOkay": 7388,
      "Ġsqueezing": 7389,
      "ĠUnder": 7390,
      "Ġoatmeal": 7391,
      "Ġthorns": 7392,
      "da": 7393,
      "ĠHalloween": 7394,
      "rying": 7395,
      "Ġsweetest": 7396,
      "Ġangels": 7397,
      "Ġstreamers": 7398,
      "Ġforgiving": 7399,
      "Abigail": 7400,
      "ĠIm": 7401,
      "Tw": 7402,
      "Ġconvers": 7403,
      "Ġdistract": 7404,
      "Ġgesture": 7405,
      "Ġnoodles": 7406,
      "Ġanger": 7407,
      "manda": 7408,
      "Ġpassports": 7409,
      "Ġdefin": 7410,
      "Kim": 7411,
      "ca": 7412,
      "Ġund": 7413,
      "steps": 7414,
      "asty": 7415,
      "Ġblocked": 7416,
      "Ġdamaged": 7417,
      "Ġmerma": 7418,
      "fia": 7419,
      "Ġnapping": 7420,
      "Ġbuses": 7421,
      "Ġperforming": 7422,
      "Ġrainy": 7423,
      "Ġedges": 7424,
      "ĠChris": 7425,
      "ĠAmelia": 7426,
      "Bet": 7427,
      "Ġcoral": 7428,
      "Ġfrowns": 7429,
      "Su": 7430,
      "Ġyum": 7431,
      "ĠEva": 7432,
      "Ġcleaner": 7433,
      "Ġbandages": 7434,
      "Ġpuzzled": 7435,
      "Ġaccomplished": 7436,
      "Ġfant": 7437,
      "ĠMabel": 7438,
      "Ġlaying": 7439,
      "Ġfootsteps": 7440,
      "Ġcrossing": 7441,
      "Ġsymbols": 7442,
      "Ġinstruments": 7443,
      "ĠSquirrel": 7444,
      "Ġni": 7445,
      "Ġelf": 7446,
      "Ġpays": 7447,
      "Alright": 7448,
      "Ġtil": 7449,
      "Ġreminding": 7450,
      "Ġwider": 7451,
      "Ġsnort": 7452,
      "Ġfinishing": 7453,
      "Ġheartbroken": 7454,
      "ĠMichael": 7455,
      "Ġquieter": 7456,
      "Ġtravels": 7457,
      "ĠMaddie": 7458,
      "Ġtoddler": 7459,
      "ĠSimon": 7460,
      "ÅĵPlease": 7461,
      "Ġsails": 7462,
      "Ġignoring": 7463,
      "Ġshovels": 7464,
      "Ġconnected": 7465,
      "Ġsou": 7466,
      "Ġpoppies": 7467,
      "Ġcottage": 7468,
      "Ġsnowflakes": 7469,
      "found": 7470,
      "Ġrather": 7471,
      "Ġrains": 7472,
      "Ġhairdress": 7473,
      "Ġcommun": 7474,
      "Ġgranddaughter": 7475,
      "âĤ¬,": 7476,
      "Ġsmallest": 7477,
      "Ġpackages": 7478,
      "Ġbattle": 7479,
      "Beep": 7480,
      "Ġpedaled": 7481,
      "Ġdefinitely": 7482,
      "Ġkings": 7483,
      "Ġrepeating": 7484,
      "Ġheight": 7485,
      "Ġchopped": 7486,
      "Ġsuggestion": 7487,
      "Ġsweep": 7488,
      "Ġbrushing": 7489,
      "Ġwithin": 7490,
      "Ġhanding": 7491,
      "ĠSpidey": 7492,
      "ĠUp": 7493,
      "Surprise": 7494,
      "Take": 7495,
      "Ġais": 7496,
      "Ġsoaking": 7497,
      "Ġslipping": 7498,
      "Ġappreciated": 7499,
      "cent": 7500,
      "ider": 7501,
      "Ġspies": 7502,
      "Ġtoward": 7503,
      "Ġhumming": 7504,
      "Ġtravelling": 7505,
      "Ġhairdresser": 7506,
      "whe": 7507,
      "Ġease": 7508,
      "Ġsever": 7509,
      "ĠQuick": 7510,
      "Ġreassured": 7511,
      "onies": 7512,
      "onnie": 7513,
      "Ġcuddles": 7514,
      "Ġcotton": 7515,
      "Ġfantastic": 7516,
      "Ġseveral": 7517,
      "Ġtipped": 7518,
      "Ġbru": 7519,
      "ÅĵOf": 7520,
      "Ġfills": 7521,
      "Ġtablet": 7522,
      "Ġbracelets": 7523,
      "Ġcowboy": 7524,
      "Ġgenie": 7525,
      "Ġsniffing": 7526,
      "Ġsuffered": 7527,
      "ĠBecause": 7528,
      "ddie": 7529,
      "Ġbelts": 7530,
      "Ġdrown": 7531,
      "Ġcloudy": 7532,
      "Ġpaintbrush": 7533,
      "ĠAlthough": 7534,
      "Ġdisturbing": 7535,
      "Ġofficers": 7536,
      "Ġtying": 7537,
      "ighting": 7538,
      "Ġfocus": 7539,
      "Ġpunishment": 7540,
      "Ġresponsib": 7541,
      "Excited": 7542,
      "perate": 7543,
      "Ġchanges": 7544,
      "Ġbusiness": 7545,
      "ĠPatch": 7546,
      "Ġlending": 7547,
      "Tony": 7548,
      "Ġbless": 7549,
      "onse": 7550,
      "Ġresponse": 7551,
      "Ġluckily": 7552,
      "Ġoccas": 7553,
      "Since": 7554,
      "erk": 7555,
      "Ġafar": 7556,
      "Ġencount": 7557,
      "Ġsurfing": 7558,
      "Ġcorrectly": 7559,
      "isions": 7560,
      "Ġstitches": 7561,
      "Ġexplorer": 7562,
      "athy": 7563,
      "Ġsurv": 7564,
      "Ġwisely": 7565,
      "Ġrisks": 7566,
      "ibbit": 7567,
      "Ġyel": 7568,
      "Whenever": 7569,
      "Ġbanged": 7570,
      "ĠFuzzy": 7571,
      "inkle": 7572,
      "Ġaddress": 7573,
      "Ġmagnif": 7574,
      "Ġarranged": 7575,
      "Ġyelped": 7576,
      "Ġnasty": 7577,
      "Ġreapp": 7578,
      "Ġefforts": 7579,
      "Ġconflict": 7580,
      "issa": 7581,
      "Ġelbow": 7582,
      "Ġcomforting": 7583,
      "undred": 7584,
      "ĠYesterday": 7585,
      "Ġdump": 7586,
      "Ġflipped": 7587,
      "Ġvines": 7588,
      "Mimi": 7589,
      "ading": 7590,
      "Ġgoodby": 7591,
      "flies": 7592,
      "Ġapologised": 7593,
      "Ġsuits": 7594,
      "Ġloops": 7595,
      "Ġvehicles": 7596,
      "Ġlicking": 7597,
      "Ġinspired": 7598,
      "Ġponies": 7599,
      "Ġknots": 7600,
      "Ġfinal": 7601,
      "Ġstopping": 7602,
      "Ġworrying": 7603,
      "Ġbelieving": 7604,
      "Ġmailed": 7605,
      "Ġgoodbyes": 7606,
      "iel": 7607,
      "Ġsill": 7608,
      "Ġnewfound": 7609,
      "ails": 7610,
      "Ġpleaded": 7611,
      "ĠLouise": 7612,
      "abby": 7613,
      "Ġtar": 7614,
      "ÅĵHey": 7615,
      "sol": 7616,
      "Ġfishes": 7617,
      "Ġpurr": 7618,
      "ĠX": 7619,
      "Ġbraver": 7620,
      "Ġdespite": 7621,
      "erpiece": 7622,
      "Ġcampfire": 7623,
      "Ġtrotted": 7624,
      "Ġdarl": 7625,
      "ooky": 7626,
      "Ġcheers": 7627,
      "Ġspits": 7628,
      "Ġreunited": 7629,
      "Ġdarlings": 7630,
      "isc": 7631,
      "Ġjars": 7632,
      "Ġpeas": 7633,
      "Ġsurfboard": 7634,
      "Ġtasting": 7635,
      "Ġunderstands": 7636,
      "Ġdriveway": 7637,
      "Ġgazing": 7638,
      "ĠTry": 7639,
      "rian": 7640,
      "ecca": 7641,
      "dding": 7642,
      "ĠPippin": 7643,
      "pen": 7644,
      "Ġpuck": 7645,
      "Ġwhose": 7646,
      "iza": 7647,
      "Ġwobble": 7648,
      "acles": 7649,
      "Ġawoke": 7650,
      "Ġsweat": 7651,
      "Ġcustomers": 7652,
      "Ġnurses": 7653,
      "eeling": 7654,
      "Vroom": 7655,
      "ĠOkay": 7656,
      "Ġlies": 7657,
      "Ġdecisions": 7658,
      "Ġmarve": 7659,
      "Goodnight": 7660,
      "Ġpresented": 7661,
      "Ġencouragement": 7662,
      "vroom": 7663,
      "Ġlent": 7664,
      "Ġmood": 7665,
      "Ġsav": 7666,
      "Ġstumble": 7667,
      "Ġcollap": 7668,
      "Ġtarget": 7669,
      "Ġcoach": 7670,
      "Ġconqu": 7671,
      "Ġships": 7672,
      "Ġsimply": 7673,
      "Ġcongratulated": 7674,
      "Ġmemb": 7675,
      "Ġsurprising": 7676,
      "acle": 7677,
      "ĠRuth": 7678,
      "Ġsmelling": 7679,
      "ivia": 7680,
      "Ġsupported": 7681,
      "Ġseashells": 7682,
      "Ġmembers": 7683,
      "Get": 7684,
      "inted": 7685,
      "Ġbirdhouse": 7686,
      "ĠDory": 7687,
      "Ġantic": 7688,
      "Ġprick": 7689,
      "Ġcrowns": 7690,
      "iens": 7691,
      "Ġaliens": 7692,
      "Ġstored": 7693,
      "Ġcovering": 7694,
      "Ġpeeled": 7695,
      "Ġcalmly": 7696,
      "ĠBubba": 7697,
      "ĠMarie": 7698,
      "Ġdelayed": 7699,
      "anie": 7700,
      "Ġweeds": 7701,
      "Ġsped": 7702,
      "ĠElly": 7703,
      "Ġbaskets": 7704,
      "Ġexcept": 7705,
      "Ġartwork": 7706,
      "Ġbothering": 7707,
      "Ġspills": 7708,
      "Ġwrinkled": 7709,
      "Ġgap": 7710,
      "Ġclerk": 7711,
      "Ġque": 7712,
      "Ġwarmly": 7713,
      "Ġexamining": 7714,
      "Ġmasterpiece": 7715,
      "eedy": 7716,
      "ollen": 7717,
      "Ġannoyed": 7718,
      "uel": 7719,
      "Ġshoo": 7720,
      "Ġswollen": 7721,
      "Ġunfortunately": 7722,
      "Ġbelongings": 7723,
      "Ġscram": 7724,
      "Ġexercises": 7725,
      "Ġdiscussing": 7726,
      "ĠAshley": 7727,
      "we": 7728,
      "ssss": 7729,
      "Ġjoins": 7730,
      "emma": 7731,
      "Ġimages": 7732,
      "worm": 7733,
      "Ġbuddy": 7734,
      "Ġstudent": 7735,
      "Anne": 7736,
      "Ġwounds": 7737,
      "ms": 7738,
      "ĠFighting": 7739,
      "Ġsewed": 7740,
      "Ġtroubles": 7741,
      "ĠPatty": 7742,
      "Ġburying": 7743,
      "Ġsqueaked": 7744,
      "Chloe": 7745,
      "aturday": 7746,
      "Hannah": 7747,
      "ĠSaturday": 7748,
      "Ġspy": 7749,
      "agic": 7750,
      "Ġdonkey": 7751,
      "Ġaware": 7752,
      "ĠBirdy": 7753,
      "Ġconcert": 7754,
      "Mad": 7755,
      "even": 7756,
      "line": 7757,
      "wise": 7758,
      "rie": 7759,
      "elie": 7760,
      "Ġteachers": 7761,
      "Ġwhistles": 7762,
      "Ġfigures": 7763,
      "attered": 7764,
      "ĠFroggy": 7765,
      "Ted": 7766,
      "Ġhundred": 7767,
      "Ġdep": 7768,
      "lph": 7769,
      "Ġchilly": 7770,
      "Ġfins": 7771,
      "Ġpurpose": 7772,
      "ĠAlly": 7773,
      "ĠJaney": 7774,
      "screen": 7775,
      "Ġnibbled": 7776,
      "Ġwarrior": 7777,
      "crow": 7778,
      "rier": 7779,
      "Ġlapt": 7780,
      "ĠJoan": 7781,
      "ugging": 7782,
      "ĠBecky": 7783,
      "Ġwindowsill": 7784,
      "Ġtubes": 7785,
      "Frank": 7786,
      "ĠPippa": 7787,
      "ongo": 7788,
      "Ġposit": 7789,
      "Ġchocolates": 7790,
      "Ġguessing": 7791,
      "Ġmermaid": 7792,
      "mered": 7793,
      "Ġwasting": 7794,
      "Ġrin": 7795,
      "ammy": 7796,
      "Ġorders": 7797,
      "Ġdiamonds": 7798,
      "Ġspeeding": 7799,
      "ĠSnowman": 7800,
      "ĠMaddy": 7801,
      "Ġexperienced": 7802,
      "father": 7803,
      "ĠAny": 7804,
      "Ġexch": 7805,
      "Ġsquaw": 7806,
      "ĠDog": 7807,
      "Ġterrified": 7808,
      "Ġspells": 7809,
      "Ġgrip": 7810,
      "bell": 7811,
      "rick": 7812,
      "Any": 7813,
      "utter": 7814,
      "ppa": 7815,
      "artled": 7816,
      "ĠWelcome": 7817,
      "Ġtreated": 7818,
      "Ġtapping": 7819,
      "Ġjoked": 7820,
      "ĠKaty": 7821,
      "Steve": 7822,
      "Ġtoolbox": 7823,
      "Ġsolving": 7824,
      "hil": 7825,
      "ĠWil": 7826,
      "Ġsunscreen": 7827,
      "Ġraces": 7828,
      "Ġfires": 7829,
      "Ġpriz": 7830,
      "Ġmagazines": 7831,
      "Ġadmiration": 7832,
      "Ġglittering": 7833,
      "Ġnibble": 7834,
      "rup": 7835,
      "Ġnodding": 7836,
      "Ġalthough": 7837,
      "usty": 7838,
      "Ġthanking": 7839,
      "Ġforests": 7840,
      "Ġplanting": 7841,
      "Ġwhispering": 7842,
      "Ġmaterial": 7843,
      "Ġlaptop": 7844,
      "Jamie": 7845,
      "mies": 7846,
      "rily": 7847,
      "order": 7848,
      "amma": 7849,
      "ĠMina": 7850,
      "ĠOther": 7851,
      "Ġclassmates": 7852,
      "Ġtires": 7853,
      "ĠRocky": 7854,
      "Penny": 7855,
      "Ġstall": 7856,
      "Ġspooky": 7857,
      "Ġswap": 7858,
      "Ġuntied": 7859,
      "Ġexpert": 7860,
      "Ġstomp": 7861,
      "Quack": 7862,
      "Ġactivity": 7863,
      "Ġrefuse": 7864,
      "David": 7865,
      "Rachel": 7866,
      "aven": 7867,
      "Ġdragonfly": 7868,
      "Ġdisplayed": 7869,
      "Ġqueens": 7870,
      "Ġmaker": 7871,
      "Ġloses": 7872,
      "Ġdisc": 7873,
      "Always": 7874,
      "Ġinsisting": 7875,
      "Leave": 7876,
      "ighing": 7877,
      "Ġscent": 7878,
      "Ġtweet": 7879,
      "ipes": 7880,
      "Ġfoxes": 7881,
      "Ġgoats": 7882,
      "Ġgrandson": 7883,
      "Ġbackpacks": 7884,
      "Ġoppos": 7885,
      "ĠExcited": 7886,
      "Ġsyrup": 7887,
      "ilda": 7888,
      "ĠFreddie": 7889,
      "Ġexplains": 7890,
      "Ġscurrying": 7891,
      "Ġscrambled": 7892,
      "Joy": 7893,
      "Ġbou": 7894,
      "Ġbitten": 7895,
      "Ġdot": 7896,
      "Ġdecl": 7897,
      "ĠFiona": 7898,
      "ÅĵSee": 7899,
      "Ġwiggly": 7900,
      "Ġbeaming": 7901,
      "Ġforgiveness": 7902,
      "Ġbouqu": 7903,
      "ris": 7904,
      "Ġhoo": 7905,
      "ÅĵThe": 7906,
      "Ġconvin": 7907,
      "Ġjud": 7908,
      "Ġlabels": 7909,
      "Ġsternly": 7910,
      "ĠTessa": 7911,
      "Ġopposite": 7912,
      "ÅĵSure": 7913,
      "Ġdiso": 7914,
      "ĠSplash": 7915,
      "Ġloc": 7916,
      "ument": 7917,
      "ĠDuck": 7918,
      "ĠDespite": 7919,
      "Ġtrans": 7920,
      "Ġdoorbell": 7921,
      "Ġhunters": 7922,
      "Ġrely": 7923,
      "Ġflips": 7924,
      "True": 7925,
      "Ġnearest": 7926,
      "Bunny": 7927,
      "what": 7928,
      "rest": 7929,
      "Ġrays": 7930,
      "Ġbrightest": 7931,
      "ĠRain": 7932,
      "ĠStan": 7933,
      "Ġscarecrow": 7934,
      "Ġstroke": 7935,
      "Ġresponded": 7936,
      "Ġencountered": 7937,
      "Dear": 7938,
      "olph": 7939,
      "sm": 7940,
      "ortunately": 7941,
      "Ġtidied": 7942,
      "Ġwealth": 7943,
      "Ġdiscoveries": 7944,
      "udolph": 7945,
      "Ġpupils": 7946,
      "aint": 7947,
      "Ġteles": 7948,
      "Ġghosts": 7949,
      "Ġaeroplanes": 7950,
      "Ġemerged": 7951,
      "iscuit": 7952,
      "Ġtelescope": 7953,
      "Ġlowered": 7954,
      "Ġpandas": 7955,
      "Am": 7956,
      "idence": 7957,
      "ĠBounce": 7958,
      "Ġprayers": 7959,
      "illiam": 7960,
      "gain": 7961,
      "ĠAna": 7962,
      "Ġpeep": 7963,
      "Ġtesting": 7964,
      "Meanwhile": 7965,
      "Ġattacked": 7966,
      "Ġtype": 7967,
      "yl": 7968,
      "Ġting": 7969,
      "ĠSamantha": 7970,
      "ĠSpeedy": 7971,
      "ĠKelly": 7972,
      "Ġpermitted": 7973,
      "Ġvibr": 7974,
      "Ġmatey": 7975,
      "Ġanticip": 7976,
      "Ġtransf": 7977,
      "Ġger": 7978,
      "Ġuntie": 7979,
      "Ġvegg": 7980,
      "Ġservant": 7981,
      "Ġtwists": 7982,
      "Ġquarre": 7983,
      "Ġcharacters": 7984,
      "Ġcleared": 7985,
      "Ġvisitors": 7986,
      "Stay": 7987,
      "ĠFrankie": 7988,
      "Ġicing": 7989,
      "Ġwhimp": 7990,
      "Ġbreaths": 7991,
      "ĠPepper": 7992,
      "ĠMegan": 7993,
      "Ġmeowing": 7994,
      "Ġsheets": 7995,
      "ĠBow": 7996,
      "ĠAmanda": 7997,
      "Ġcharge": 7998,
      "ĠEddie": 7999,
      "Ġsweaty": 8000,
      "Ġcrawls": 8001,
      "Ġbeeped": 8002,
      "Ke": 8003,
      "Ġaim": 8004,
      "ats": 8005,
      "ancy": 8006,
      "Ġastronauts": 8007,
      "Jess": 8008,
      "anda": 8009,
      "ortun": 8010,
      "Ġsprout": 8011,
      "ĠElle": 8012,
      "Ġturtles": 8013,
      "Rosie": 8014,
      "ĠSw": 8015,
      "ĠHold": 8016,
      "ĠgirlÃ¢": 8017,
      "ĠJojo": 8018,
      "Ġyoungest": 8019,
      "Ġscratching": 8020,
      "Ġopportun": 8021,
      "munk": 8022,
      "ĠSk": 8023,
      "Ġshall": 8024,
      "Ġends": 8025,
      "Ġhonking": 8026,
      "Ġtaped": 8027,
      "Ġincreasing": 8028,
      "Ġcocoon": 8029,
      "inger": 8030,
      "ooking": 8031,
      "ĠSofia": 8032,
      "ĠZoomy": 8033,
      "Tweetie": 8034,
      "Ġshimmering": 8035,
      "Ġbeeh": 8036,
      "Ġmillion": 8037,
      "Ġnuzzled": 8038,
      "Ġconversation": 8039,
      "Ġtumbled": 8040,
      "Ġfailed": 8041,
      "Ġfloors": 8042,
      "Ġenviron": 8043,
      "Ġrats": 8044,
      "Ġstatues": 8045,
      "Ġfilms": 8046,
      "abra": 8047,
      "Ġpurrs": 8048,
      "Ġenvironment": 8049,
      "ĠHolly": 8050,
      "Ġunwra": 8051,
      "Ġtilted": 8052,
      "ĠTy": 8053,
      "Ġzooms": 8054,
      "Ġtidying": 8055,
      "udged": 8056,
      "Ġcrystals": 8057,
      "Ġchipmunk": 8058,
      "Ġtoss": 8059,
      "ĠBongo": 8060,
      "Ġmischie": 8061,
      "ĠRobo": 8062,
      "Ġmanager": 8063,
      "Ġanticipation": 8064,
      "Ġmischievous": 8065,
      "Bang": 8066,
      "Ġforce": 8067,
      "Ġbeautifully": 8068,
      "Ġdressing": 8069,
      "Ġrotting": 8070,
      "oosh": 8071,
      "igger": 8072,
      "Ġrumbling": 8073,
      "Ġbeating": 8074,
      "ĠYouÃ¢": 8075,
      "Ġgrat": 8076,
      "oscope": 8077,
      "ĠFlo": 8078,
      "Ġrescuing": 8079,
      "empt": 8080,
      "ctric": 8081,
      "Ġdangers": 8082,
      "Ġvisits": 8083,
      "Ġpicnics": 8084,
      "Ġreminds": 8085,
      "Ġgrandfather": 8086,
      "Ġseagulls": 8087,
      "Ġcustomer": 8088,
      "lo": 8089,
      "Ġbea": 8090,
      "Ġmanners": 8091,
      "ĠMomma": 8092,
      "Ġattempt": 8093,
      "Ġdesigning": 8094,
      "Ġoffering": 8095,
      "ĠKevin": 8096,
      "Ġswaying": 8097,
      "Ġrobbers": 8098,
      "lied": 8099,
      "ilities": 8100,
      "Ġform": 8101,
      "otte": 8102,
      "Ġjobs": 8103,
      "arlotte": 8104,
      "Ġcheckout": 8105,
      "Ġhoops": 8106,
      "Ġmosquitoes": 8107,
      "Ġdeclared": 8108,
      "Ġsteth": 8109,
      "Ġprevented": 8110,
      "Ġdrowned": 8111,
      "Ġgratitude": 8112,
      "bit": 8113,
      "hind": 8114,
      "Ġsens": 8115,
      "Ġrowed": 8116,
      "romise": 8117,
      "Ġswitched": 8118,
      "Ġdecoration": 8119,
      "Ġobeyed": 8120,
      "Ġflaps": 8121,
      "ĠAuntie": 8122,
      "Ġdodged": 8123,
      "Ġsurvive": 8124,
      "Ġveggies": 8125,
      "Buzz": 8126,
      "act": 8127,
      "belle": 8128,
      "pit": 8129,
      "Ġmovements": 8130,
      "Ġquestioned": 8131,
      "Ġcells": 8132,
      "Ġannounced": 8133,
      "Ġaisle": 8134,
      "Poppy": 8135,
      "ittered": 8136,
      "Ġblond": 8137,
      "Ġinstantly": 8138,
      "Ġknocking": 8139,
      "Ġswayed": 8140,
      "ĠQuackers": 8141,
      "Out": 8142,
      "Ġgoodies": 8143,
      "athan": 8144,
      "ĠRudolph": 8145,
      "Ġparted": 8146,
      "ordinary": 8147,
      "Ġotters": 8148,
      "Ġstethoscope": 8149,
      "ulp": 8150,
      "Ġsculp": 8151,
      "Ġrecorder": 8152,
      "Ġargument": 8153,
      "Ġcowboys": 8154,
      "Ġresponsibility": 8155,
      "Ġclicked": 8156,
      "Ġbadger": 8157,
      "Ġcons": 8158,
      "Ġdears": 8159,
      "Ġcracks": 8160,
      "Ġelectric": 8161,
      "Ġshrunk": 8162,
      "Ġlipstick": 8163,
      "Ġsteering": 8164,
      "ĠAngel": 8165,
      "Friend": 8166,
      "five": 8167,
      "ĠTaking": 8168,
      "Ġinches": 8169,
      "Ġseals": 8170,
      "Ġcares": 8171,
      "Ġdisobey": 8172,
      "Boys": 8173,
      "Mat": 8174,
      "anced": 8175,
      "Ġsmashed": 8176,
      "Ġflip": 8177,
      "airy": 8178,
      "Ġexploded": 8179,
      "Ġroutine": 8180,
      "Claire": 8181,
      "Ġtin": 8182,
      "ĠDino": 8183,
      "Ġdripping": 8184,
      "Ġactive": 8185,
      "Ġawful": 8186,
      "ĠReady": 8187,
      "Julie": 8188,
      "orter": 8189,
      "ÅĵWho": 8190,
      "Ġadds": 8191,
      "Ġmodels": 8192,
      "ummies": 8193,
      "Ġbouquet": 8194,
      "lt": 8195,
      "Ġsmelt": 8196,
      "Ġminds": 8197,
      "Ġself": 8198,
      "Ġpaddling": 8199,
      "ĠJonny": 8200,
      "innie": 8201,
      "ĠHope": 8202,
      "ĠHelen": 8203,
      "Thomas": 8204,
      "Ġsupplied": 8205,
      "Ġchatter": 8206,
      "Red": 8207,
      "lephant": 8208,
      "Ġslowed": 8209,
      "Ġcupcake": 8210,
      "Ġbathing": 8211,
      "Ġrobin": 8212,
      "ippers": 8213,
      "Uncle": 8214,
      "rink": 8215,
      "ative": 8216,
      "Ġsnug": 8217,
      "Ġdeed": 8218,
      "Ġfarmers": 8219,
      "Ġbothered": 8220,
      "Someone": 8221,
      "Ġflashing": 8222,
      "Ġhen": 8223,
      "Ġblown": 8224,
      "Ġchecks": 8225,
      "ĠRos": 8226,
      "Ġextraordinary": 8227,
      "Ġapplause": 8228,
      "Ġsnaps": 8229,
      "Ġhike": 8230,
      "oration": 8231,
      "llas": 8232,
      "Ġflashed": 8233,
      "ÅĵMaybe": 8234,
      "ÅĵGood": 8235,
      "Ġglimmering": 8236,
      "Ġstretches": 8237,
      "Tilly": 8238,
      "Ġmunched": 8239,
      "Ġkilled": 8240,
      "Ġwaters": 8241,
      "Ġsets": 8242,
      "Ġnests": 8243,
      "Ġumbrellas": 8244,
      "Ġshorts": 8245,
      "Ġparticularly": 8246,
      "Ġheaven": 8247,
      "storm": 8248,
      "Ġgroan": 8249,
      "Ġconduct": 8250,
      "Ġconvinced": 8251,
      "Buddy": 8252,
      "Each": 8253,
      "otch": 8254,
      "Ġshines": 8255,
      "Ġtwenty": 8256,
      "Ġpetting": 8257,
      "flowers": 8258,
      "Ġunpacking": 8259,
      "Ġobserving": 8260,
      "Ġcollapsed": 8261,
      "Ġsculpture": 8262,
      "ĠTime": 8263,
      "Ġramp": 8264,
      "ĠIzzy": 8265,
      "Ġhardest": 8266,
      "ĠPoor": 8267,
      "Ġbluebird": 8268,
      "Ġtrusting": 8269,
      "Ġinchworm": 8270,
      "Ġopinions": 8271,
      "Ġshin": 8272,
      "Ġgenerosity": 8273,
      "Ġtests": 8274,
      "Ġearned": 8275,
      "Pl": 8276,
      "ĠSay": 8277,
      "Ġsoot": 8278,
      "Ġwinding": 8279,
      "Ġbounces": 8280,
      "ebecca": 8281,
      "Ġdisappoint": 8282,
      "ĠElsie": 8283,
      "Ġgall": 8284,
      "lest": 8285,
      "Ġposes": 8286,
      "ĠGl": 8287,
      "ĠNana": 8288,
      "Ġforgives": 8289,
      "Ġswimmer": 8290,
      "Ġvisitor": 8291,
      "Ġstamped": 8292,
      "Ġconfidence": 8293,
      "Ġcontainer": 8294,
      "Ġexpecting": 8295,
      "Co": 8296,
      "Car": 8297,
      "vy": 8298,
      "ering": 8299,
      "Ġgoo": 8300,
      "ĠBrian": 8301,
      "Ġlocks": 8302,
      "Ġsquished": 8303,
      "Josh": 8304,
      "Ġmember": 8305,
      "ĠSnowball": 8306,
      "Ġconductor": 8307,
      "water": 8308,
      "ĠLion": 8309,
      "ĠJason": 8310,
      "ĠwhatÃ¢": 8311,
      "ooks": 8312,
      "Ġtrigger": 8313,
      "LetÃ¢": 8314,
      "ĠPen": 8315,
      "ĠDaniel": 8316,
      "ĠFinny": 8317,
      "Ġapplauding": 8318,
      "Ġfloats": 8319,
      "Adam": 8320,
      "Jessie": 8321,
      "Ġknives": 8322,
      "ĠGary": 8323,
      "Ġbuckled": 8324,
      "Ġexperiences": 8325,
      "Nice": 8326,
      "elvet": 8327,
      "Ġclosing": 8328,
      "Ġcourt": 8329,
      "Ġwhisk": 8330,
      "Ġdestroying": 8331,
      "Ġprickly": 8332,
      "Ġgerms": 8333,
      "Ġbeehive": 8334,
      "Arrr": 8335,
      "rough": 8336,
      "Ġtummies": 8337,
      "ita": 8338,
      "ĠmomÃ¢": 8339,
      "chy": 8340,
      "Ġbond": 8341,
      "ĠJax": 8342,
      "Ġcarries": 8343,
      "Ġdryer": 8344,
      "ĠTrust": 8345,
      "Ġinstrument": 8346,
      "Ġsadder": 8347,
      "Ġill": 8348,
      "Ġwaded": 8349,
      "âĤ¬Â": 8350,
      "ĠRoger": 8351,
      "ĠElsa": 8352,
      "ÅĵBe": 8353,
      "ĠPo": 8354,
      "angle": 8355,
      "Ġtickling": 8356,
      "Ġteams": 8357,
      "Ġhunting": 8358,
      "ĠCrabby": 8359,
      "Ġmunching": 8360,
      "ĠSweet": 8361,
      "Ġtraded": 8362,
      "Ġoverhead": 8363,
      "ĠSpring": 8364,
      "Ġnights": 8365,
      "Ġscrub": 8366,
      "Ġlanguages": 8367,
      "ĠIsn": 8368,
      "pril": 8369,
      "Bear": 8370,
      "Che": 8371,
      "Je": 8372,
      "Kids": 8373,
      "Papa": 8374,
      "Ġtips": 8375,
      "Ġinter": 8376,
      "Ġwhoever": 8377,
      "uddles": 8378,
      "ĠCla": 8379,
      "bee": 8380,
      "Ġwiser": 8381,
      "Ġcombed": 8382,
      "ĠPeppa": 8383,
      "ĠJean": 8384,
      "ĠOlivia": 8385,
      "âĤ¬Â¦": 8386,
      "Ġsigning": 8387,
      "Ġstrum": 8388,
      "acy": 8389,
      "ĠZero": 8390,
      "Ġscooters": 8391,
      "Ġcubs": 8392,
      "Ġsirens": 8393,
      "idnight": 8394,
      "ĠMother": 8395,
      "aula": 8396,
      "Ġsprays": 8397,
      "ĠPeggy": 8398,
      "Ġscolds": 8399,
      "Ġburnt": 8400,
      "ĠLiam": 8401,
      "centr": 8402,
      "Beth": 8403,
      "Honey": 8404,
      "ĠJilly": 8405,
      "ÅĵOk": 8406,
      "Ġtearing": 8407,
      "Ġrealizes": 8408,
      "Ġconcentr": 8409,
      "Ġsingers": 8410,
      "Ġcompan": 8411,
      "Ġenvelopes": 8412,
      "Ġuniforms": 8413,
      "lers": 8414,
      "Ġket": 8415,
      "Ġgardens": 8416,
      "acock": 8417,
      "Ġcrops": 8418,
      "ĠFlora": 8419,
      "idents": 8420,
      "ĠZee": 8421,
      "Ġchatted": 8422,
      "ators": 8423,
      "ances": 8424,
      "adabra": 8425,
      "boards": 8426,
      "ĠDonÃ¢": 8427,
      "rrrrrrrr": 8428,
      "Ġpossess": 8429,
      "Too": 8430,
      "ended": 8431,
      "ĠMae": 8432,
      "ĠAnt": 8433,
      "Ġtreas": 8434,
      "ĠFel": 8435,
      "Ġclearly": 8436,
      "Ġquacking": 8437,
      "oc": 8438,
      "yd": 8439,
      "yle": 8440,
      "Ġkit": 8441,
      "arable": 8442,
      "asha": 8443,
      "hole": 8444,
      "Ġwildflowers": 8445,
      "ĠStitch": 8446,
      "Ġpeeped": 8447,
      "erg": 8448,
      "Ġhaven": 8449,
      "Ġplugged": 8450,
      "str": 8451,
      "lyn": 8452,
      "Ġchin": 8453,
      "aptain": 8454,
      "ĠCle": 8455,
      "ccidents": 8456,
      "Ġconquered": 8457,
      "cadabra": 8458,
      "Ġhood": 8459,
      "ĠBad": 8460,
      "Ġcheat": 8461,
      "ĠPhil": 8462,
      "Ġsurely": 8463,
      "Ġpapa": 8464,
      "balls": 8465,
      "Ġrelaxing": 8466,
      "Ġchecking": 8467,
      "Ġnewspapers": 8468,
      "Abby": 8469,
      "car": 8470,
      "Ġbound": 8471,
      "orking": 8472,
      "ĠAva": 8473,
      "Ġflick": 8474,
      "ĠCurious": 8475,
      "Ġhotter": 8476,
      "ĠStri": 8477,
      "Ġmicrow": 8478,
      "Ġcheaper": 8479,
      "Ġexpression": 8480,
      "ĠImmediately": 8481,
      "Ġprizes": 8482,
      "earing": 8483,
      "Ġplayd": 8484,
      "ĠBang": 8485,
      "ĠWo": 8486,
      "Ġfond": 8487,
      "Ġpasses": 8488,
      "Ġreturning": 8489,
      "Ġbicycles": 8490,
      "Ġnovels": 8491,
      "Ġdetails": 8492,
      "Ġborn": 8493,
      "Ġodd": 8494,
      "ĠBess": 8495,
      "Ġmomma": 8496,
      "Ġshorter": 8497,
      "Ġflowing": 8498,
      "Ġraising": 8499,
      "Ġmesses": 8500,
      "Ġcirc": 8501,
      "ĠRufus": 8502,
      "ĠVroom": 8503,
      "Ġpuppets": 8504,
      "Ġoutfits": 8505,
      "Brown": 8506,
      "elieve": 8507,
      "Snow": 8508,
      "hny": 8509,
      "vince": 8510,
      "Ġflock": 8511,
      "Ġexploration": 8512,
      "Ġcheated": 8513,
      "Ġglided": 8514,
      "Ġconvince": 8515,
      "Ġprod": 8516,
      "Ġsqueaky": 8517,
      "Ġswirls": 8518,
      "Ġhealthier": 8519,
      "ĠSmo": 8520,
      "Ġmommies": 8521,
      "icate": 8522,
      "Ġgrumbled": 8523,
      "Ġgulp": 8524,
      "Ġcheerfully": 8525,
      "Ġawhile": 8526,
      "Ġproviding": 8527,
      "Ġmeows": 8528,
      "ĠSparkle": 8529,
      "ĠAmber": 8530,
      "Ġdefeated": 8531,
      "Karen": 8532,
      "ouraged": 8533,
      "ĠPick": 8534,
      "ĠNever": 8535,
      "Ġhangers": 8536,
      "ĠTwinkle": 8537,
      "Ġannoying": 8538,
      "Ġbeaver": 8539,
      "Ġnatur": 8540,
      "ĠWilliam": 8541,
      "ship": 8542,
      "Ġnecks": 8543,
      "Ġburns": 8544,
      "Ġunlo": 8545,
      "Ġtreasured": 8546,
      "Ġmicrowave": 8547,
      "Mart": 8548,
      "Ġfaint": 8549,
      "Ġhonesty": 8550,
      "Ġexplaining": 8551,
      "Freddy": 8552,
      "Ġvibrant": 8553,
      "Ġcompanion": 8554,
      "Cat": 8555,
      "sers": 8556,
      "Ġdoz": 8557,
      "Ġjugg": 8558,
      "ĠAr": 8559,
      "Ġlongest": 8560,
      "ĠKay": 8561,
      "Ġmelody": 8562,
      "ĠWhoever": 8563,
      "Mira": 8564,
[...]
